<pad>	0
<unk>	0
<s>	0
</s>	0
.	-3.03789
▁the	-3.08898
,	-3.47359
▁and	-3.53903
▁a	-3.75019
▁to	-3.81309
▁was	-4.06167
▁in	-4.33449
▁of	-4.40455
▁I	-4.40712
▁is	-4.52431
▁The	-4.57621
▁for	-4.6328
▁we	-4.74689
▁hotel	-4.79587
'	-4.83598
▁it	-4.83739
▁room	-4.94067
▁at	-4.9554
▁were	-4.99337
▁you	-5.00272
▁with	-5.07033
▁that	-5.093
▁on	-5.10183
s	-5.11184
▁but	-5.12273
▁We	-5.20157
▁very	-5.20719
▁not	-5.2999
▁had	-5.30526
▁this	-5.37036
▁are	-5.38853
t	-5.4145
▁our	-5.42759
▁have	-5.46054
▁from	-5.5404
▁(	-5.57406
▁there	-5.6332
!	-5.66514
▁as	-5.66869
▁be	-5.73535
▁all	-5.77289
▁so	-5.78062
▁stay	-5.79093
-	-5.79195
▁they	-5.79415
▁great	-5.81871
▁staff	-5.86401
▁my	-5.86754
▁would	-5.86823
▁good	-5.89882
▁-	-5.90614
▁one	-6.0402
▁us	-6.06421
▁rooms	-6.08656
▁which	-6.10679
▁out	-6.11089
)	-6.11265
▁nice	-6.11756
▁an	-6.1782
▁if	-6.17991
▁It	-6.18366
▁get	-6.19988
▁or	-6.20861
▁just	-6.23222
▁clean	-6.24399
▁about	-6.2684
▁stayed	-6.27047
▁time	-6.27767
▁location	-6.28288
▁night	-6.28581
▁only	-6.29005
▁no	-6.31027
▁up	-6.31356
▁can	-6.34913
▁service	-6.36408
▁by	-6.3825
▁breakfast	-6.39877
▁day	-6.41527
▁when	-6.45683
▁did	-6.50603
▁like	-6.50983
▁also	-6.5248
▁pool	-6.52762
▁here	-6.53447
▁other	-6.55625
▁your	-6.55689
▁well	-6.57573
▁really	-6.58555
▁could	-6.58681
▁back	-6.58716
▁place	-6.59273
▁some	-6.59764
▁will	-6.60592
▁more	-6.61838
▁area	-6.62369
▁me	-6.63348
▁small	-6.6471
▁go	-6.64894
▁There	-6.65913
▁friendly	-6.67096
▁walk	-6.67901
▁again	-6.69118
▁This	-6.7058
/	-6.71219
▁2	-6.71982
▁food	-6.73303
▁than	-6.77122
▁helpful	-6.80609
▁bed	-6.81077
...	-6.81294
).	-6.82227
▁do	-6.82735
▁two	-6.85083
▁much	-6.878
▁didn	-6.88495
▁even	-6.88525
▁floor	-6.88809
▁little	-6.88924
▁has	-6.88952
▁been	-6.89358
▁desk	-6.89577
▁bathroom	-6.89648
▁comfortable	-6.89808
▁got	-6.90153
▁what	-6.90773
▁people	-6.911
:	-6.93014
▁view	-6.93816
▁beach	-6.94452
▁front	-6.94544
▁around	-6.95068
▁their	-6.95845
▁"	-6.95846
▁They	-6.96224
▁My	-6.96716
▁after	-6.98538
▁Hotel	-7.00788
▁first	-7.01423
▁next	-7.01553
▁resort	-7.02686
▁them	-7.03173
▁3	-7.03453
▁too	-7.0405
"	-7.04678
▁because	-7.05115
▁any	-7.05554
▁free	-7.06015
▁check	-7.06316
▁recommend	-7.06912
▁right	-7.08628
▁nights	-7.0899
▁5	-7.09723
▁restaurants	-7.10341
▁down	-7.10761
▁restaurant	-7.10853
▁If	-7.11799
▁bar	-7.12786
▁over	-7.12885
▁best	-7.13032
▁excellent	-7.14635
▁hotels	-7.16599
▁price	-7.16954
▁away	-7.17322
▁trip	-7.17446
▁water	-7.17608
▁most	-7.18055
▁went	-7.18599
▁who	-7.18758
▁want	-7.19274
▁way	-7.20282
▁many	-7.21797
▁made	-7.22433
▁off	-7.22661
▁found	-7.22862
▁close	-7.23027
▁bit	-7.23124
▁every	-7.23619
▁don	-7.24422
▁minutes	-7.24481
▁few	-7.24523
▁i	-7.25109
▁never	-7.26578
▁Our	-7.26584
▁where	-7.26917
▁better	-7.27919
d	-7.28077
▁large	-7.28276
th	-7.29173
▁always	-7.29704
▁4	-7.30059
▁before	-7.30804
▁see	-7.30922
▁then	-7.31097
▁A	-7.31127
▁booked	-7.32785
▁street	-7.34057
▁shower	-7.34222
▁morning	-7.35317
▁lobby	-7.35614
▁quite	-7.36617
▁into	-7.37159
▁find	-7.37405
▁take	-7.37599
▁make	-7.37958
▁door	-7.38344
▁&	-7.38815
▁beautiful	-7.39163
▁city	-7.40175
▁walking	-7.41121
▁everything	-7.41369
▁use	-7.4243
▁say	-7.42753
▁need	-7.45554
▁though	-7.4683
▁going	-7.4711
▁beds	-7.47173
▁wonderful	-7.4722
▁days	-7.47611
▁experience	-7.47821
▁enough	-7.48053
▁quiet	-7.50227
▁definitely	-7.50303
▁told	-7.50525
▁big	-7.50578
▁being	-7.51611
▁etc	-7.52096
▁reviews	-7.52937
m	-7.53174
▁You	-7.53498
▁staying	-7.53921
▁lot	-7.54378
▁coffee	-7.55172
▁think	-7.554
re	-7.5568
▁said	-7.57277
▁took	-7.58131
;	-7.58816
▁arrived	-7.5929
▁he	-7.59804
▁old	-7.59868
ve	-7.60131
▁through	-7.60407
▁problem	-7.606
▁another	-7.63545
▁perfect	-7.63601
▁airport	-7.64137
▁asked	-7.64137
▁When	-7.64387
▁long	-7.64685
▁10	-7.65154
▁located	-7.65246
▁sure	-7.65366
▁its	-7.65799
▁buffet	-7.6582
▁times	-7.66492
in	-7.67465
▁during	-7.69056
▁money	-7.69199
▁still	-7.69451
▁thing	-7.69999
▁noise	-7.70277
▁parking	-7.70937
▁left	-7.71213
▁while	-7.71347
▁	-7.7205
▁each	-7.72379
▁am	-7.72487
▁easy	-7.72617
▁know	-7.73032
▁outside	-7.73484
▁bad	-7.73625
▁same	-7.73723
▁feel	-7.74205
▁enjoyed	-7.74205
▁hot	-7.74269
▁side	-7.75035
▁new	-7.75076
▁last	-7.75585
▁family	-7.76
▁lovely	-7.76038
▁looking	-7.76131
),	-7.76466
▁But	-7.7649
▁pretty	-7.7676
▁station	-7.77239
▁husband	-7.77582
▁1	-7.77833
▁size	-7.78051
▁ever	-7.78171
▁loved	-7.79826
▁week	-7.79861
?	-7.7991
▁car	-7.80574
▁All	-7.80605
▁main	-7.81116
▁distance	-7.81447
▁wasn	-7.81501
▁within	-7.82038
▁how	-7.82578
▁reception	-7.82816
▁things	-7.82948
▁wanted	-7.83054
▁kids	-7.83307
▁near	-7.83376
▁suite	-7.83843
▁visit	-7.83963
▁early	-7.84225
▁available	-7.84435
▁work	-7.84482
▁Great	-7.84605
▁far	-7.84871
▁come	-7.85068
▁worth	-7.85118
▁value	-7.85171
▁spacious	-7.85329
▁pay	-7.85611
ing	-7.86537
▁bus	-7.86633
▁internet	-7.86829
▁both	-7.86972
▁amazing	-7.87588
▁eat	-7.88119
▁dinner	-7.88142
▁open	-7.88369
▁used	-7.89656
▁top	-7.89682
ed	-7.89714
▁return	-7.90445
▁expensive	-7.90835
▁In	-7.91023
▁couple	-7.91096
▁fantastic	-7.91284
▁business	-7.91296
▁came	-7.91493
▁guests	-7.91572
▁full	-7.918
▁should	-7.92482
▁minute	-7.929
▁fine	-7.92929
▁extremely	-7.93002
!!	-7.93232
I	-7.93412
▁extra	-7.9465
▁Overall	-7.94813
▁felt	-7.95211
▁across	-7.95546
▁Very	-7.95635
▁year	-7.95936
▁called	-7.96388
▁nothing	-7.96525
▁high	-7.96794
The	-7.97204
▁she	-7.97725
▁end	-7.97913
▁since	-7.98118
’	-7.98373
▁drinks	-7.98762
▁Also	-7.99447
▁shopping	-7.99731
▁As	-8.00152
▁towels	-8.00305
▁part	-8.00544
▁rate	-8.00701
▁star	-8.00883
▁short	-8.00949
▁TV	-8.01091
▁huge	-8.01328
▁home	-8.01834
▁property	-8.01885
▁per	-8.01948
▁So	-8.0211
▁although	-8.02413
▁able	-8.02424
▁something	-8.02511
▁checked	-8.03081
▁However	-8.03435
▁access	-8.03442
▁three	-8.03463
▁hours	-8.03499
▁thought	-8.03646
▁wait	-8.03703
▁Room	-8.03706
▁building	-8.03783
▁hour	-8.03838
▁look	-8.03954
▁needed	-8.04162
▁different	-8.04881
▁sleep	-8.05732
▁places	-8.05797
▁No	-8.06348
▁Breakfast	-8.06423
▁modern	-8.06456
▁without	-8.06501
▁evening	-8.06595
▁late	-8.06684
▁put	-8.06742
▁try	-8.06746
▁however	-8.069
▁And	-8.06927
▁paid	-8.07407
▁air	-8.08168
▁6	-8.08316
▁anything	-8.08644
▁getting	-8.09194
▁!	-8.09617
▁several	-8.09784
▁safe	-8.10035
▁having	-8.10043
▁looked	-8.10399
▁lots	-8.10722
▁until	-8.1085
▁help	-8.11332
▁seemed	-8.1139
▁deal	-8.11472
▁Vegas	-8.11665
▁especially	-8.12059
▁plenty	-8.12443
▁ask	-8.12724
▁expect	-8.12828
▁happy	-8.12939
ll	-8.13157
▁pleasant	-8.13377
▁given	-8.13739
▁her	-8.14861
▁hard	-8.14991
▁fun	-8.15184
▁choice	-8.1564
▁included	-8.1565
▁wife	-8.15735
▁spent	-8.15834
▁second	-8.16932
▁own	-8.17134
▁Not	-8.1734
and	-8.17413
▁gave	-8.1772
▁strip	-8.17729
▁such	-8.18398
▁weekend	-8.18493
▁give	-8.18644
the	-8.18909
▁,	-8.1949
▁quality	-8.19827
▁After	-8.20176
▁For	-8.20719
▁else	-8.2131
▁call	-8.2147
a	-8.21498
▁vacation	-8.21517
▁charge	-8.22301
▁actually	-8.22794
▁anyone	-8.23147
▁On	-8.23322
▁person	-8.23399
▁couldn	-8.23955
▁those	-8.24373
▁itself	-8.2438
▁One	-8.24893
▁book	-8.25116
▁double	-8.2551
▁'	-8.26208
▁less	-8.26301
▁San	-8.26428
▁once	-8.26602
▁Staff	-8.26965
▁convenient	-8.27363
▁Rome	-8.27373
▁shuttle	-8.27423
▁taxi	-8.27691
e	-8.2898
▁stop	-8.29016
▁leave	-8.29345
▁New	-8.29629
▁probably	-8.29993
▁these	-8.30121
▁travel	-8.30166
▁must	-8.30277
▁bedroom	-8.30623
▁space	-8.31151
▁may	-8.31495
▁offered	-8.31648
am	-8.32142
▁returned	-8.32478
▁fresh	-8.32798
▁balcony	-8.33239
▁standard	-8.33501
▁friends	-8.33719
▁highly	-8.33837
▁drink	-8.34172
▁read	-8.34741
▁enjoy	-8.34816
pm	-8.35028
▁special	-8.35089
ly	-8.35098
▁cost	-8.36075
▁cold	-8.3609
▁views	-8.36093
▁years	-8.36293
▁Paris	-8.36349
▁ocean	-8.36429
▁line	-8.36536
y	-8.36545
▁busy	-8.3663
▁luggage	-8.36927
▁7	-8.36969
▁nearby	-8.37539
▁concierge	-8.37772
▁hear	-8.38162
▁ready	-8.38217
▁window	-8.38765
▁walked	-8.38933
▁everyone	-8.39602
....	-8.39622
▁corner	-8.39696
▁least	-8.39722
we	-8.39816
▁bath	-8.40437
▁15	-8.41062
▁his	-8.41356
▁Rooms	-8.41689
▁either	-8.41736
▁kept	-8.41809
▁center	-8.41928
▁shops	-8.41966
▁tub	-8.42011
▁downtown	-8.42019
▁Stayed	-8.42126
▁ate	-8.42551
▁decided	-8.43133
▁manager	-8.4324
▁problems	-8.4408
▁someone	-8.44262
▁train	-8.44527
▁cheap	-8.44804
▁park	-8.44831
▁arrival	-8.45056
▁does	-8.45167
▁town	-8.45499
▁blocks	-8.45553
▁20	-8.45866
▁offer	-8.46134
▁fact	-8.46188
▁provided	-8.46262
▁whole	-8.46587
▁8	-8.46877
▁Just	-8.4696
▁kind	-8.4697
▁almost	-8.47209
▁let	-8.47379
▁love	-8.47488
▁saw	-8.47543
▁ok	-8.47769
▁lounge	-8.48513
▁plus	-8.49194
▁chairs	-8.49269
▁spend	-8.49462
▁metro	-8.49729
▁due	-8.50212
▁block	-8.50494
▁table	-8.50695
--	-8.50722
▁others	-8.50944
▁absolutely	-8.50984
▁disappointed	-8.51104
▁expected	-8.51202
▁areas	-8.51559
▁now	-8.51776
!!!	-8.51911
▁show	-8.51966
▁four	-8.5197
▁noisy	-8.52486
▁decent	-8.52549
▁road	-8.52814
▁children	-8.52984
▁rather	-8.53074
▁wine	-8.53541
▁worked	-8.53576
▁booking	-8.53655
▁quick	-8.54046
▁He	-8.54219
▁warm	-8.54594
▁later	-8.54655
▁Square	-8.54867
▁casino	-8.5491
▁liked	-8.55137
▁amenities	-8.55298
▁keep	-8.55398
▁Location	-8.55727
▁central	-8.56204
▁pools	-8.56277
▁might	-8.56409
€	-8.56521
▁between	-8.56728
▁tried	-8.56993
▁light	-8.57214
▁spa	-8.57853
▁card	-8.57886
▁elevator	-8.5825
▁facilities	-8.58338
▁tour	-8.58342
▁Good	-8.5909
▁working	-8.59129
▁local	-8.5956
▁reasonable	-8.5963
▁windows	-8.59726
▁half	-8.59775
▁along	-8.60074
▁ride	-8.60122
▁--	-8.60236
▁lunch	-8.60359
▁care	-8.60387
▁Would	-8.60501
▁decor	-8.60897
▁done	-8.61748
▁Inn	-8.61749
▁under	-8.62328
▁making	-8.62411
▁wouldn	-8.63022
▁What	-8.63057
▁flight	-8.63431
▁phone	-8.63434
▁bars	-8.63673
▁average	-8.63745
▁including	-8.63846
▁Grand	-8.64115
▁prices	-8.64177
▁reservation	-8.64471
▁dirty	-8.64701
▁kitchen	-8.64719
â	-8.64916
▁above	-8.64965
▁course	-8.65002
▁upgraded	-8.65045
▁fridge	-8.65099
▁That	-8.65518
▁real	-8.65666
▁change	-8.65674
▁St	-8.66066
▁rest	-8.66281
▁fruit	-8.66845
▁certainly	-8.66883
▁king	-8.66908
▁tea	-8.67019
▁needs	-8.67664
▁mini	-8.67991
▁At	-8.68271
▁level	-8.69417
▁cool	-8.6948
▁guest	-8.69654
▁set	-8.69668
▁toilet	-8.70094
▁order	-8.70186
▁attractions	-8.70266
▁issue	-8.70542
▁why	-8.70579
▁upgrade	-8.70647
▁review	-8.70713
▁overall	-8.70907
▁30	-8.70991
▁entire	-8.7116
▁bring	-8.71348
▁website	-8.7135
▁English	-8.71628
▁anywhere	-8.71684
▁start	-8.71838
it	-8.72029
▁him	-8.72031
▁dining	-8.72127
▁point	-8.72196
▁coming	-8.73221
▁club	-8.73491
which	-8.73649
▁cleaned	-8.74067
▁grounds	-8.74149
▁site	-8.74886
▁number	-8.75002
▁awesome	-8.75408
▁bathrooms	-8.75518
▁basic	-8.76045
▁run	-8.76202
▁middle	-8.77011
▁complimentary	-8.77088
▁wall	-8.77521
▁housekeeping	-8.77605
▁waiting	-8.77942
▁tiny	-8.77957
▁major	-8.78094
▁served	-8.78339
▁smell	-8.78546
▁centre	-8.78753
▁seen	-8.78878
▁non	-8.78911
▁group	-8.79163
▁relaxing	-8.79565
▁decorated	-8.79997
▁loud	-8.80109
▁Park	-8.80149
▁bags	-8.80225
▁everywhere	-8.80258
▁already	-8.80327
▁Hilton	-8.80395
▁Nice	-8.80461
▁tell	-8.81151
▁daily	-8.81158
▁Check	-8.81537
▁9	-8.81615
▁seem	-8.81954
▁five	-8.81979
▁heard	-8.83146
▁trying	-8.83247
▁selection	-8.83257
▁meal	-8.83332
▁mind	-8.83354
▁recently	-8.83383
We	-8.83564
▁negative	-8.83911
▁name	-8.83935
▁pillows	-8.84022
▁single	-8.8405
▁reservations	-8.84071
▁sit	-8.84165
▁surprised	-8.84526
▁cab	-8.84579
▁super	-8.84701
▁inside	-8.84811
▁York	-8.8498
▁music	-8.85183
▁Although	-8.85414
▁mins	-8.85449
▁received	-8.85457
▁past	-8.8548
▁Beach	-8.85529
▁complaint	-8.8572
▁style	-8.86316
▁world	-8.8645
▁Disney	-8.86467
but	-8.86572
▁chose	-8.86615
▁key	-8.86777
▁holiday	-8.86918
▁checking	-8.87007
▁walls	-8.87174
▁poor	-8.87253
▁request	-8.87489
▁Service	-8.87723
▁fabulous	-8.87796
▁isn	-8.88246
▁requested	-8.88275
▁store	-8.88394
▁min	-8.88398
▁She	-8.8899
▁valet	-8.89306
▁impressed	-8.89375
▁twice	-8.89763
▁choose	-8.89825
n	-8.89937
▁reading	-8.90039
▁tourist	-8.90087
▁drive	-8.90118
▁believe	-8.90175
▁shop	-8.90244
nd	-8.90658
▁yet	-8.90813
▁doors	-8.90876
▁comfy	-8.90923
▁glass	-8.91025
▁To	-8.913
▁efficient	-8.91315
▁flat	-8.91383
▁makes	-8.91506
▁brought	-8.92065
▁cannot	-8.92423
▁adequate	-8.9247
▁friend	-8.92496
▁From	-8.92506
▁easily	-8.92917
▁tip	-8.93022
▁recommended	-8.93026
▁11	-8.93244
▁taking	-8.93387
▁closed	-8.93962
▁instead	-8.94211
▁upon	-8.94224
▁rude	-8.94367
▁floors	-8.94431
er	-8.94438
▁tv	-8.95253
▁Venice	-8.95454
▁turn	-8.9571
▁Las	-8.95807
▁daughter	-8.95892
i	-8.96054
▁won	-8.96195
▁welcome	-8.96257
▁priced	-8.96388
▁Only	-8.96404
▁public	-8.96467
▁touch	-8.96665
▁gym	-8.96717
▁afternoon	-8.96793
▁24	-8.96841
▁seems	-8.9686
▁party	-8.97314
▁customer	-8.97373
no	-8.97374
▁subway	-8.97841
▁delicious	-8.9811
▁atmosphere	-8.98217
▁quickly	-8.98286
▁ended	-8.98295
▁nicely	-8.98314
▁Club	-8.98466
▁weren	-8.98503
▁Everything	-8.98565
(	-8.98568
!)	-8.98686
▁separate	-8.98691
▁dark	-8.98775
▁moved	-8.9889
▁polite	-8.99194
▁directly	-8.99295
▁taken	-8.994
▁fee	-8.99624
▁turned	-8.99769
▁usually	-8.99794
▁crowded	-9.00088
▁screen	-9.00188
▁menu	-9.00334
▁options	-9.00476
▁furniture	-9.00603
▁private	-9.01292
▁throughout	-9.01371
▁variety	-9.01385
not	-9.0141
S	-9.01468
▁12	-9.01561
▁using	-9.01854
▁London	-9.01878
▁young	-9.0205
or	-9.02126
▁move	-9.02167
▁budget	-9.02195
▁pleased	-9.02397
▁Marriott	-9.02404
▁wedding	-9.02486
▁cleaning	-9.02924
▁Even	-9.02962
▁watch	-9.03009
▁First	-9.03251
▁soon	-9.03259
▁spot	-9.03265
▁entrance	-9.03556
▁OK	-9.03585
▁elevators	-9.03588
▁reason	-9.03608
▁previous	-9.04164
▁wrong	-9.0417
▁fast	-9.04255
▁Don	-9.04268
▁Street	-9.04278
▁doesn	-9.04337
▁pick	-9.04818
▁de	-9.0494
▁slow	-9.04942
▁knew	-9.05141
▁Tower	-9.0527
▁speak	-9.0537
▁living	-9.05769
▁complaints	-9.06046
▁fairly	-9.06249
▁met	-9.0639
▁professional	-9.06435
▁plan	-9.06435
▁job	-9.06537
out	-9.06582
▁overlooking	-9.06718
▁maybe	-9.06843
▁NYC	-9.07213
▁head	-9.07239
▁eggs	-9.07459
▁activities	-9.07679
▁immediately	-9.07736
▁While	-9.0774
▁charged	-9.07827
▁mentioned	-9.08293
▁traffic	-9.08486
▁sun	-9.08564
▁NOT	-9.08842
▁smaller	-9.09047
▁helped	-9.09073
c	-9.09074
▁paying	-9.09223
▁resorts	-9.09311
▁except	-9.09915
▁sink	-9.10258
▁buy	-9.10293
▁bottle	-9.105
▁swimming	-9.10583
▁tired	-9.10899
▁City	-9.10956
▁worst	-9.10958
▁somewhere	-9.10969
▁continental	-9.10994
rd	-9.11075
▁sitting	-9.11077
▁stuff	-9.1111
▁issues	-9.11418
▁credit	-9.11695
st	-9.11748
▁low	-9.11827
▁finally	-9.12156
▁La	-9.12595
▁behind	-9.12649
▁type	-9.13095
▁house	-9.13418
▁changed	-9.13495
▁didnt	-9.13499
▁courteous	-9.13718
▁relax	-9.13855
▁items	-9.13875
▁Yes	-9.14086
▁sheets	-9.14184
▁entertainment	-9.14389
o	-9.1447
▁Had	-9.14513
▁carpet	-9.14701
▁Italian	-9.14757
▁luxury	-9.14851
▁ice	-9.14905
▁tower	-9.15077
▁often	-9.15165
▁man	-9.15204
▁guess	-9.15468
▁Some	-9.15558
▁greeted	-9.1559
▁weather	-9.15808
▁complain	-9.16052
▁chair	-9.16247
▁opened	-9.1634
▁gorgeous	-9.16404
▁French	-9.16407
▁truly	-9.16545
night	-9.16584
▁doing	-9.16732
▁Metro	-9.16803
▁slept	-9.16902
▁member	-9.17067
▁son	-9.17263
▁eating	-9.17456
▁expectations	-9.17532
▁visiting	-9.17667
▁attentive	-9.17811
▁bother	-9.1792
▁swim	-9.1844
▁facing	-9.18559
▁unless	-9.18835
▁hand	-9.18851
▁conference	-9.1892
▁management	-9.18991
▁system	-9.19005
▁roof	-9.19162
▁terrace	-9.19182
▁simply	-9.19337
▁provide	-9.19376
C	-9.19523
▁Food	-9.19562
▁note	-9.19795
▁construction	-9.20493
▁guy	-9.20501
▁conditioning	-9.20759
▁shows	-9.20893
▁spoke	-9.20924
▁heart	-9.21088
▁leaving	-9.21135
▁wish	-9.21398
▁looks	-9.21511
▁favorite	-9.21513
▁appointed	-9.2154
▁live	-9.21969
▁cheaper	-9.221
▁meals	-9.22398
▁renovated	-9.22407
▁definately	-9.22408
▁standards	-9.22572
▁outstanding	-9.22609
▁security	-9.227
▁Barcelona	-9.23105
▁break	-9.23115
▁Chicago	-9.23193
▁larger	-9.23219
▁weeks	-9.23254
▁completely	-9.2328
▁myself	-9.23376
▁case	-9.23906
▁juice	-9.24134
▁Palace	-9.24225
▁mention	-9.2429
▁euros	-9.24371
▁understand	-9.24443
▁visited	-9.24531
▁package	-9.24586
▁nicer	-9.24606
▁possible	-9.24641
▁pricey	-9.25235
▁neighborhood	-9.25502
▁Excellent	-9.25853
▁unit	-9.25905
▁honeymoon	-9.26001
▁limited	-9.26045
▁terrible	-9.26059
▁option	-9.26161
▁Internet	-9.26167
▁stairs	-9.26213
▁traveling	-9.26369
▁Bay	-9.26464
▁wifi	-9.26725
▁machine	-9.26811
▁sights	-9.26864
▁cruise	-9.26942
▁Well	-9.26985
▁offers	-9.26999
▁sites	-9.27159
▁welcoming	-9.27287
▁rates	-9.27539
▁dont	-9.27627
▁older	-9.27682
▁perfectly	-9.28157
▁Playa	-9.28161
▁takes	-9.2857
▁–	-9.28902
▁superb	-9.28926
▁life	-9.28975
▁Amsterdam	-9.29
▁difficult	-9.29371
▁noticed	-9.29524
▁Upon	-9.29585
▁class	-9.29855
▁bill	-9.30037
r	-9.3021
▁maid	-9.30222
▁closet	-9.30471
▁longer	-9.30932
▁beat	-9.30945
▁choices	-9.31033
▁sign	-9.31097
▁via	-9.31162
▁sized	-9.31241
▁steps	-9.31452
▁beer	-9.31506
▁directions	-9.31695
▁started	-9.31923
▁situated	-9.3204
▁birthday	-9.32063
▁anyway	-9.32084
▁points	-9.3209
▁ago	-9.32143
▁based	-9.32179
▁cafe	-9.32184
▁lady	-9.32412
▁reasonably	-9.3256
▁okay	-9.32621
▁lack	-9.3311
▁true	-9.3317
▁towel	-9.33192
▁third	-9.33312
▁prepared	-9.33328
▁stops	-9.33482
▁W	-9.34106
▁compared	-9.34319
▁queen	-9.34354
▁snacks	-9.34549
▁square	-9.34769
▁ideal	-9.34815
on	-9.34903
▁dated	-9.34966
▁matter	-9.35001
▁re	-9.35067
▁tables	-9.3508
▁Singapore	-9.35143
▁fault	-9.35171
▁maintained	-9.35234
▁ones	-9.353
▁remember	-9.35532
▁courtyard	-9.35538
▁services	-9.3566
▁broken	-9.35728
▁higher	-9.35772
as	-9.35807
▁...	-9.35869
▁information	-9.36091
▁Istanbul	-9.36117
▁smoke	-9.36167
▁spotless	-9.36191
▁surprise	-9.36287
▁families	-9.36439
▁positive	-9.36833
room	-9.36876
▁Other	-9.37128
▁Bellagio	-9.37165
▁sleeping	-9.37234
▁questions	-9.37234
▁downstairs	-9.37349
▁enjoyable	-9.37445
▁Free	-9.37552
▁sent	-9.37648
▁/	-9.37843
▁allowed	-9.37945
▁pass	-9.38255
▁goes	-9.38415
es	-9.38454
▁hope	-9.38478
com	-9.38537
▁slightly	-9.38541
▁particularly	-9.38848
▁smile	-9.39161
▁soft	-9.39306
▁Hyatt	-9.39323
▁tram	-9.39438
▁below	-9.39535
▁sound	-9.3978
▁Central	-9.39783
▁ordered	-9.3991
▁exactly	-9.39964
▁consider	-9.40011
▁simple	-9.40017
▁pictures	-9.40125
▁glad	-9.40295
▁general	-9.40394
▁white	-9.40654
▁trouble	-9.40763
▁moment	-9.40833
▁seeing	-9.40837
▁running	-9.40918
▁cheese	-9.40974
▁transportation	-9.40984
▁returning	-9.40987
▁Times	-9.40992
▁please	-9.41
▁adults	-9.41165
▁together	-9.41217
▁typical	-9.4126
▁smoking	-9.41647
▁yourself	-9.41674
▁US	-9.41732
▁advice	-9.41826
so	-9.42113
▁considering	-9.42154
▁VERY	-9.42155
▁hair	-9.42253
▁online	-9.42413
▁Boston	-9.42446
▁Royal	-9.42534
l	-9.42578
▁mall	-9.42592
▁feeling	-9.42669
▁computer	-9.4275
▁microwave	-9.42808
▁stars	-9.42892
▁important	-9.43017
▁everyday	-9.43161
▁totally	-9.43225
▁Westin	-9.43464
▁literally	-9.43575
▁apartment	-9.43607
▁Resort	-9.43836
▁yes	-9.43971
▁arrive	-9.44163
▁elsewhere	-9.44188
▁expecting	-9.44515
to	-9.44585
▁regular	-9.44683
▁treated	-9.44883
▁tickets	-9.44952
▁river	-9.45008
▁island	-9.45145
▁beyond	-9.45268
▁Bar	-9.45648
▁wireless	-9.45966
▁waited	-9.46044
▁suites	-9.46065
▁accommodating	-9.46113
▁amount	-9.46252
▁feet	-9.46477
▁dollars	-9.46583
▁months	-9.46597
▁saying	-9.46632
▁Pool	-9.46696
▁July	-9.46884
▁prior	-9.46904
▁usual	-9.46918
up	-9.46945
▁incredible	-9.46987
▁experienced	-9.47007
▁avoid	-9.47157
▁Diego	-9.47189
day	-9.47207
▁future	-9.47231
▁play	-9.47566
▁forward	-9.47678
▁thin	-9.47735
▁lift	-9.47768
▁Best	-9.47783
▁House	-9.4782
▁asking	-9.47904
▁bigger	-9.47948
▁25	-9.47972
▁pressure	-9.47982
▁personal	-9.48024
▁ceiling	-9.48107
▁sand	-9.48533
▁horrible	-9.48773
▁West	-9.49269
▁MGM	-9.49764
▁appreciated	-9.49864
▁spectacular	-9.49884
they	-9.49956
▁advance	-9.49973
▁Having	-9.50098
▁attention	-9.50289
▁Spanish	-9.50373
▁onto	-9.50522
▁miss	-9.5068
▁design	-9.50727
▁*	-9.50755
▁Mexico	-9.50797
▁ground	-9.50886
▁sightseeing	-9.50932
▁sofa	-9.50959
▁charming	-9.50992
▁sometimes	-9.5113
▁travelling	-9.51135
▁anniversary	-9.512
▁B	-9.51241
▁district	-9.51297
▁despite	-9.51348
▁outdoor	-9.51472
▁Station	-9.51504
▁clerk	-9.51618
▁streets	-9.51628
▁Be	-9.52023
▁interesting	-9.52054
▁luxurious	-9.52147
▁Then	-9.52233
▁picked	-9.52251
▁â	-9.52265
▁somewhat	-9.52536
▁Sheraton	-9.52574
▁complained	-9.52717
▁idea	-9.52737
▁buses	-9.5298
▁suggest	-9.52983
".	-9.53006
▁paper	-9.53201
▁Loved	-9.53858
▁further	-9.53902
▁means	-9.53926
▁lights	-9.5394
.....	-9.53999
▁Most	-9.54147
▁garden	-9.5425
▁Maui	-9.54374
▁fan	-9.54402
▁w	-9.54498
▁Its	-9.5462
▁minor	-9.54881
▁alot	-9.54889
▁sea	-9.54904
▁toiletries	-9.55075
▁With	-9.55166
▁trips	-9.55314
▁jacuzzi	-9.55391
▁members	-9.55774
▁transport	-9.55955
▁parks	-9.55998
▁additional	-9.56021
▁foot	-9.56036
▁buildings	-9.56076
▁stand	-9.56119
▁boutique	-9.56131
▁receptionist	-9.56271
▁la	-9.56295
▁lost	-9.563
▁pm	-9.56404
▁clear	-9.56814
▁S	-9.56885
▁Do	-9.56964
▁none	-9.57004
you	-9.5733
▁chance	-9.5735
▁May	-9.57391
▁Sydney	-9.57424
star	-9.57535
▁market	-9.57649
▁fitness	-9.57666
fi	-9.57868
▁Old	-9.57962
▁bread	-9.57966
▁planning	-9.57988
▁treat	-9.58016
▁driver	-9.58098
▁del	-9.5812
▁Ritz	-9.5835
▁heat	-9.58523
▁added	-9.58556
▁Mexican	-9.5861
▁channels	-9.58719
▁Every	-9.58738
▁King	-9.58752
▁romantic	-9.58798
▁American	-9.58993
A	-9.59229
▁50	-9.59251
▁alone	-9.59417
▁fish	-9.59469
▁Francisco	-9.59554
▁save	-9.59848
▁opinion	-9.59934
▁Saturday	-9.60026
▁round	-9.60051
▁Now	-9.60111
▁fit	-9.60142
▁opposite	-9.60178
▁ourselves	-9.60314
▁comment	-9.60465
▁lower	-9.60525
▁hallway	-9.60618
▁Plaza	-9.60639
▁fixed	-9.60688
▁couples	-9.60823
▁Orleans	-9.60917
▁sort	-9.60999
▁Center	-9.61006
for	-9.61038
▁handy	-9.611
▁pleasantly	-9.61102
▁mid	-9.61172
▁employees	-9.61232
▁Everyone	-9.61521
▁equipped	-9.61618
▁delivered	-9.61813
▁arriving	-9.61817
▁incredibly	-9.62032
▁company	-9.62094
▁fully	-9.62132
▁catch	-9.62337
▁stocked	-9.62653
▁generally	-9.62688
▁fair	-9.62759
▁lines	-9.6276
▁exceptional	-9.62807
if	-9.63165
▁Once	-9.63205
▁Four	-9.6326
▁boyfriend	-9.63684
very	-9.63699
▁otherwise	-9.63719
▁Suites	-9.63811
▁Since	-9.63855
▁advantage	-9.63922
▁pre	-9.63931
▁Oh	-9.63972
▁face	-9.64006
▁happened	-9.64073
▁Parking	-9.64075
▁straight	-9.64088
▁office	-9.64137
▁summer	-9.64174
▁pastries	-9.64178
▁willing	-9.64242
at	-9.64271
▁Clean	-9.64284
▁Suite	-9.64393
▁cleanliness	-9.64466
▁hit	-9.64477
▁complete	-9.64583
▁clothes	-9.64607
▁gone	-9.64736
▁Sunday	-9.64828
▁showed	-9.64903
▁rooftop	-9.65065
g	-9.65343
▁Seattle	-9.65453
▁Thank	-9.65492
▁beautifully	-9.65512
▁e	-9.65628
▁notice	-9.65661
▁European	-9.65711
▁uncomfortable	-9.65741
▁Lots	-9.65825
▁various	-9.6601
▁boat	-9.66043
▁Unfortunately	-9.66089
▁prefer	-9.66094
▁twin	-9.66207
▁mostly	-9.66519
▁base	-9.6655
▁comes	-9.66574
▁finding	-9.66735
▁June	-9.66743
▁Berlin	-9.66827
▁spending	-9.66837
▁worn	-9.6689
▁disappointing	-9.6691
▁Blue	-9.6699
▁cable	-9.66993
▁smelled	-9.67316
▁March	-9.67323
▁garage	-9.67338
▁canal	-9.67346
▁sister	-9.6745
▁downside	-9.67501
▁Bathroom	-9.67528
▁add	-9.67544
▁gets	-9.67545
▁aware	-9.67697
▁chain	-9.67752
▁Europe	-9.67772
▁facility	-9.67782
▁share	-9.67925
▁email	-9.68124
▁overpriced	-9.68253
▁mattress	-9.68314
▁Front	-9.68328
▁informed	-9.68394
▁NY	-9.68466
▁total	-9.68592
▁:)	-9.6865
▁40	-9.68716
▁patio	-9.68856
▁pizza	-9.68903
▁hall	-9.68923
▁Italy	-9.6901
▁Hollywood	-9.69061
▁self	-9.69086
▁charges	-9.69137
▁cereal	-9.69149
▁golf	-9.69474
▁encountered	-9.69601
bar	-9.69659
▁fancy	-9.69673
▁machines	-9.69683
▁annoying	-9.6971
▁normal	-9.69848
▁forget	-9.69881
▁refrigerator	-9.69976
▁un	-9.70481
▁closer	-9.70834
▁THE	-9.70948
▁serve	-9.70963
▁bonus	-9.71075
▁toast	-9.71302
▁Juan	-9.71309
▁following	-9.71546
▁counter	-9.71548
▁watching	-9.71668
▁Strip	-9.71798
▁Cafe	-9.71845
▁mean	-9.71963
▁meant	-9.7211
▁empty	-9.72113
▁convention	-9.72147
▁motel	-9.72235
▁terrific	-9.72356
▁updated	-9.72428
▁stores	-9.72454
!!!!	-9.72566
▁marble	-9.72624
▁talking	-9.72671
▁red	-9.72696
▁worse	-9.73002
▁meeting	-9.73024
▁AC	-9.73215
▁Restaurant	-9.73216
▁reserved	-9.73233
ers	-9.73355
▁cafes	-9.73391
▁awful	-9.734
▁situation	-9.73483
▁list	-9.73516
▁maker	-9.7362
▁comfort	-9.73742
▁managed	-9.73765
▁14	-9.73787
▁earlier	-9.73889
▁addition	-9.74141
T	-9.74148
▁champagne	-9.74343
▁Carmen	-9.74455
▁Starbucks	-9.74457
▁meet	-9.7447
▁lighting	-9.74571
▁giving	-9.74722
▁Place	-9.74757
▁August	-9.74891
▁english	-9.74925
▁missing	-9.74959
▁bell	-9.74977
▁massage	-9.7502
▁bag	-9.75069
▁pleasure	-9.75087
▁bought	-9.75242
▁works	-9.75463
▁month	-9.75522
▁wi	-9.75876
▁supposed	-9.75958
▁difference	-9.76333
▁calls	-9.76364
▁write	-9.76444
▁guys	-9.76549
▁tours	-9.76616
▁$10	-9.76627
▁April	-9.76636
▁range	-9.76699
with	-9.76704
▁lucky	-9.76778
▁rating	-9.76803
one	-9.76815
▁costs	-9.76881
▁attitude	-9.77081
▁connection	-9.77275
▁brand	-9.77284
▁agree	-9.77411
▁imagine	-9.77441
▁deluxe	-9.77509
▁discount	-9.77966
▁T	-9.78093
▁Island	-9.78104
▁rent	-9.78236
!).	-9.78278
▁concerned	-9.78332
▁common	-9.78379
▁euro	-9.78412
▁wide	-9.78578
▁tourists	-9.78626
▁travelers	-9.78837
▁obviously	-9.78843
▁NO	-9.78893
▁ran	-9.78969
▁aren	-9.79055
▁Holiday	-9.79288
▁Another	-9.79325
▁reviewers	-9.79359
▁rental	-9.79427
▁bugs	-9.79498
▁clearly	-9.79529
▁game	-9.7981
B	-9.79963
▁filled	-9.79973
▁placed	-9.80155
▁tips	-9.80177
▁covered	-9.8019
▁properties	-9.80297
▁agent	-9.80362
▁comments	-9.80476
▁soap	-9.80477
▁fix	-9.80529
▁map	-9.80548
▁Again	-9.80574
▁Union	-9.80595
▁linens	-9.80912
▁temperature	-9.81035
▁Can	-9.81206
▁Both	-9.81359
▁similar	-9.81371
▁bedding	-9.81461
▁Quarter	-9.81483
▁furnished	-9.81531
▁Will	-9.81669
TMt	-9.81683
able	-9.81713
▁taste	-9.81771
▁Market	-9.81964
▁thanks	-9.8202
▁El	-9.8214
▁woman	-9.82427
▁accomodating	-9.82526
▁Ocean	-9.82614
▁laundry	-9.82624
▁hang	-9.82651
▁nearly	-9.82827
▁recommendations	-9.82835
▁Madrid	-9.83005
▁girls	-9.83021
▁Thanks	-9.8307
▁keys	-9.83092
▁p	-9.83157
▁section	-9.83191
▁appeared	-9.83312
▁bottles	-9.83511
▁south	-9.83515
▁World	-9.83517
▁chocolate	-9.83523
▁thank	-9.83744
▁Spa	-9.83784
▁black	-9.83911
▁Friday	-9.83941
▁particular	-9.8398
▁hallways	-9.84192
▁Was	-9.84194
▁worried	-9.84332
▁“	-9.84386
▁tube	-9.84445
▁basically	-9.84477
▁checkout	-9.84487
▁LA	-9.84562
▁impressive	-9.8458
▁explore	-9.84622
▁sat	-9.84624
▁mile	-9.84633
▁$20	-9.84654
▁By	-9.84692
▁relatively	-9.85018
▁stations	-9.8519
▁perhaps	-9.85415
▁grand	-9.85476
▁till	-9.85581
smoking	-9.85618
▁bright	-9.85646
▁Nothing	-9.85768
▁playing	-9.85897
▁maintenance	-9.85921
▁North	-9.86102
▁board	-9.86145
▁traveled	-9.86158
▁Venetian	-9.86299
▁condition	-9.86502
▁18	-9.86509
▁north	-9.86551
▁biggest	-9.86685
▁Airport	-9.86735
▁dishes	-9.86744
▁talk	-9.86859
all	-9.86987
▁breakfasts	-9.8714
▁Wynn	-9.87273
▁convenience	-9.87315
▁photos	-9.87399
▁action	-9.87435
▁Trip	-9.87521
▁contact	-9.87682
▁100	-9.87735
▁miles	-9.87886
▁fire	-9.87899
▁Seasons	-9.88117
▁ahead	-9.88134
▁stopped	-9.88147
▁word	-9.88229
▁)	-9.88364
▁brilliant	-9.88408
▁Christmas	-9.88585
”	-9.88611
k	-9.88728
▁Beautiful	-9.8887
▁impression	-9.88904
▁1/2	-9.88906
▁Cana	-9.89052
▁partner	-9.89097
▁snack	-9.89229
▁rain	-9.89333
▁tasty	-9.8941
▁curtains	-9.89419
▁furnishings	-9.8949
▁setting	-9.89606
▁centrally	-9.89988
▁cozy	-9.90123
▁overlooked	-9.90273
▁ten	-9.90304
▁Two	-9.90326
▁barely	-9.90422
▁Key	-9.90509
▁16	-9.90526
▁age	-9.90685
▁proximity	-9.90966
▁45	-9.91196
▁gift	-9.91229
▁taxis	-9.91294
▁steak	-9.91315
▁elegant	-9.91316
▁bottom	-9.91339
▁towards	-9.91345
although	-9.91529
▁missed	-9.91668
▁Really	-9.91698
▁Punta	-9.91788
▁arranged	-9.9182
▁Kong	-9.91888
▁u	-9.91891
▁U	-9.91892
▁bay	-9.91939
▁charm	-9.92013
▁Hong	-9.9203
▁Riu	-9.92289
▁dryer	-9.92365
▁reach	-9.92427
▁stated	-9.92431
▁Florence	-9.92707
▁Orlando	-9.92749
▁numerous	-9.92866
▁control	-9.92929
▁superior	-9.93335
▁Avenue	-9.93448
▁Next	-9.93577
▁Montreal	-9.93661
▁disappointment	-9.93823
▁hesitate	-9.9388
h	-9.94293
there	-9.94322
▁answer	-9.94347
▁cash	-9.94506
▁midnight	-9.9463
▁owner	-9.94641
▁hold	-9.94733
▁wake	-9.9493
▁affordable	-9.94961
▁sight	-9.95107
▁Bed	-9.95122
▁whilst	-9.95182
▁Go	-9.95303
▁beaches	-9.95345
▁ticket	-9.9536
▁bathtub	-9.9537
▁iron	-9.9567
▁seating	-9.95883
▁immaculate	-9.95988
▁nor	-9.96011
▁October	-9.96204
▁spots	-9.9625
▁country	-9.96559
even	-9.96621
▁Le	-9.96795
▁conditioner	-9.96824
al	-9.96904
▁girl	-9.96999
▁team	-9.97089
like	-9.97118
▁art	-9.97186
▁properly	-9.97343
p	-9.97604
▁con	-9.97678
▁An	-9.97707
▁Euros	-9.97908
▁waiter	-9.97935
▁mistake	-9.9794
▁bothered	-9.98281
▁details	-9.98435
▁odd	-9.98594
▁Waikiki	-9.98642
▁shampoo	-9.98836
▁sick	-9.98852
▁condo	-9.98932
▁couch	-9.99143
▁recent	-9.99388
▁step	-9.99466
▁requests	-9.99627
▁whether	-9.99673
▁pillow	-9.99877
▁showers	-9.99889
▁underground	-9.99973
this	-10.0015
TMs	-10.0018
▁box	-10.0025
▁Termini	-10.0038
▁conveniently	-10.0054
▁thoroughly	-10.0066
▁breeze	-10.0072
just	-10.0078
▁b	-10.0079
▁Close	-10.0082
▁grocery	-10.0086
▁bacon	-10.0094
▁attached	-10.0096
▁inclusive	-10.01
▁season	-10.0113
▁hanging	-10.0115
▁strong	-10.0116
▁theme	-10.0117
▁driving	-10.0131
▁send	-10.0154
▁surrounding	-10.0155
▁travelled	-10.0157
▁milk	-10.0182
▁Rock	-10.0206
▁Highly	-10.0225
▁L	-10.0228
▁Their	-10.0237
▁cooked	-10.0245
▁keeping	-10.0253
▁+	-10.0295
▁renovation	-10.0307
▁interested	-10.0318
▁detail	-10.0331
▁apart	-10.0333
▁hardly	-10.0337
▁overnight	-10.0338
▁peaceful	-10.0354
▁happen	-10.0363
▁Finally	-10.0365
▁Of	-10.0378
▁worry	-10.0381
▁unique	-10.0389
▁designed	-10.0391
▁),	-10.0391
▁drop	-10.0398
▁adjacent	-10.0406
▁equipment	-10.0408
▁stuck	-10.0411
▁certain	-10.0413
▁laptop	-10.042
▁hadn	-10.042
▁enter	-10.0449
▁complex	-10.0457
▁evenings	-10.046
▁cup	-10.0479
▁pull	-10.0484
▁buffets	-10.049
▁constantly	-10.0494
▁stunning	-10.0494
▁replaced	-10.0503
▁South	-10.0505
▁games	-10.0517
▁explained	-10.052
▁folks	-10.0531
▁shut	-10.057
▁notch	-10.0579
▁six	-10.0584
▁Vancouver	-10.0594
▁13	-10.0613
▁parents	-10.0624
▁Stay	-10.0631
▁court	-10.0636
▁doubt	-10.0648
▁accommodation	-10.065
▁required	-10.0658
▁privacy	-10.0662
▁built	-10.0669
▁O	-10.0676
▁Japanese	-10.0686
ness	-10.0687
▁whatever	-10.0694
▁example	-10.0701
▁process	-10.0703
▁terms	-10.0706
▁tidy	-10.0721
▁shade	-10.0721
▁offering	-10.0742
▁Advisor	-10.0745
▁cereals	-10.0748
▁December	-10.0764
▁direct	-10.0764
▁September	-10.0772
▁Concierge	-10.0773
▁cars	-10.0776
▁unfortunately	-10.0779
▁Many	-10.0791
▁owners	-10.0791
▁$5	-10.08
▁thinking	-10.0811
It	-10.0812
▁cramped	-10.0816
▁customers	-10.0817
▁planned	-10.082
▁satisfied	-10.0823
an	-10.0824
▁Housekeeping	-10.0824
▁themselves	-10.0826
▁plentiful	-10.0835
▁packed	-10.0843
▁getaway	-10.0853
▁17	-10.0865
▁adult	-10.0876
▁These	-10.0885
▁timeshare	-10.0886
▁P	-10.0889
▁January	-10.0902
▁beginning	-10.0915
▁bargain	-10.0916
▁paint	-10.0925
▁19	-10.0944
▁strange	-10.0947
▁blue	-10.0983
▁heated	-10.0986
▁carte	-10.1013
▁minibar	-10.1018
▁cut	-10.102
▁shared	-10.1027
▁interior	-10.103
▁Toronto	-10.1035
▁wear	-10.1051
▁glasses	-10.1052
le	-10.106
free	-10.1064
▁provides	-10.1066
▁Maybe	-10.108
▁Casino	-10.1084
▁traveler	-10.1089
▁Each	-10.1103
▁mirror	-10.1109
▁snorkeling	-10.1114
▁departure	-10.1119
▁include	-10.1124
▁preferred	-10.1128
▁crowd	-10.1138
▁connected	-10.114
▁runs	-10.1147
▁seat	-10.1152
▁accessible	-10.1155
▁stains	-10.1162
▁thru	-10.1164
▁nicest	-10.1166
▁trees	-10.1173
▁Ave	-10.1184
▁allow	-10.1197
▁executive	-10.1202
▁picky	-10.1217
▁cream	-10.1218
▁promptly	-10.122
▁During	-10.122
▁deck	-10.1224
▁honest	-10.1224
▁Priceline	-10.123
▁sweet	-10.123
▁View	-10.1254
▁faced	-10.1255
▁sense	-10.1264
min	-10.1271
▁quieter	-10.1273
▁baby	-10.1275
&	-10.1279
▁narrow	-10.1285
▁forgot	-10.1287
▁Have	-10.1289
▁discovered	-10.1298
▁bottled	-10.1319
▁supermarket	-10.1337
▁hop	-10.1345
▁kitchenette	-10.1351
▁receive	-10.1351
▁laid	-10.1352
▁indeed	-10.1361
▁Beds	-10.1379
▁direction	-10.1381
▁gives	-10.1385
▁Definitely	-10.1395
▁E	-10.14
▁rented	-10.1401
▁21	-10.1408
▁Euro	-10.141
▁newly	-10.1411
▁deep	-10.1425
▁Reception	-10.1426
▁AM	-10.1453
▁cocktail	-10.1454
▁Vatican	-10.1459
▁mixed	-10.1463
▁poolside	-10.1487
▁November	-10.1487
▁upscale	-10.1494
▁says	-10.1503
▁mornings	-10.1523
▁Sea	-10.1525
▁bridge	-10.1527
▁normally	-10.1532
▁exploring	-10.1539
▁held	-10.1552
▁stylish	-10.1552
▁harbour	-10.1555
▁cocktails	-10.1555
▁travellers	-10.1557
▁indoor	-10.1581
ish	-10.1582
▁locals	-10.1599
▁honestly	-10.1611
▁Friendly	-10.1629
▁Day	-10.1632
my	-10.1632
▁t	-10.1642
▁sorry	-10.1643
▁prompt	-10.165
▁web	-10.1662
▁Otherwise	-10.1676
▁careful	-10.1679
▁luck	-10.1679
▁appreciate	-10.1704
▁spread	-10.1715
▁Miami	-10.1727
▁memorable	-10.1732
▁saved	-10.1733
▁cards	-10.1738
▁stained	-10.1747
▁gem	-10.1759
▁Perfect	-10.176
▁orange	-10.1763
▁sports	-10.1766
▁Booked	-10.1766
▁tight	-10.177
▁question	-10.177
▁apparently	-10.1775
▁woke	-10.1781
▁Because	-10.1781
▁relaxed	-10.1785
▁WiFi	-10.1791
▁heavy	-10.1794
▁curtain	-10.1797
▁$100	-10.1801
▁movie	-10.1809
▁C	-10.1818
▁fare	-10.1825
▁dollar	-10.1825
▁Like	-10.1841
▁parts	-10.1842
▁Eiffel	-10.1854
▁Buffet	-10.1855
▁storage	-10.1861
▁neat	-10.1866
▁remote	-10.1873
▁Never	-10.1883
▁acceptable	-10.1888
▁impossible	-10.1902
▁lock	-10.1903
▁hospitality	-10.1916
▁feature	-10.1916
▁Cancun	-10.1917
▁chicken	-10.1941
▁men	-10.1942
▁computers	-10.1943
▁wash	-10.1947
▁stroll	-10.1966
▁became	-10.1967
▁picture	-10.1978
▁opening	-10.1985
▁Being	-10.1995
▁Manhattan	-10.1996
▁$15	-10.1997
▁Via	-10.1999
en	-10.2
▁roomy	-10.2002
▁girlfriend	-10.2016
▁known	-10.2017
▁story	-10.202
▁cover	-10.2028
▁ferry	-10.2029
▁child	-10.2052
▁speaking	-10.206
+	-10.2063
▁Garden	-10.2072
▁accommodations	-10.2073
▁previously	-10.209
▁layout	-10.209
▁calling	-10.2102
▁massive	-10.2124
▁drove	-10.2134
▁Plus	-10.2146
▁advised	-10.2152
▁croissants	-10.2156
▁carry	-10.216
▁enjoying	-10.2163
go	-10.2175
▁french	-10.2181
▁GREAT	-10.2189
▁Small	-10.2192
▁Wonderful	-10.2194
▁:	-10.221
▁Harbour	-10.2217
▁juices	-10.2223
▁Museum	-10.2238
▁useful	-10.2241
▁products	-10.2256
▁Hawaii	-10.2265
▁Town	-10.2269
▁filthy	-10.2275
▁Easy	-10.2277
▁exception	-10.2291
▁inexpensive	-10.2298
▁complaining	-10.2301
▁carpets	-10.2308
▁Ramblas	-10.2309
▁plastic	-10.231
v	-10.234
▁cute	-10.2341
▁Here	-10.2342
▁shoes	-10.2352
▁attractive	-10.2366
There	-10.2377
▁tax	-10.2378
▁鈥	-10.2393
▁television	-10.2395
▁Mirage	-10.2402
▁steep	-10.2408
▁D	-10.2408
b	-10.2419
▁green	-10.2421
x	-10.2435
▁historic	-10.2446
▁Plenty	-10.2451
▁original	-10.2452
▁advise	-10.2457
▁suggestions	-10.2477
▁crazy	-10.2481
▁realized	-10.2494
▁Â	-10.25
▁Red	-10.2531
▁tropical	-10.2533
▁secure	-10.2533
▁Del	-10.2538
▁refused	-10.254
la	-10.2543
▁standing	-10.2548
鈥檛	-10.2559
▁Canal	-10.2559
▁played	-10.2563
▁Universal	-10.2566
▁functional	-10.2566
▁yogurt	-10.2573
▁employee	-10.2576
▁advertised	-10.2579
▁wasnt	-10.2596
鈥	-10.2606
▁women	-10.2608
▁outdated	-10.2608
▁Village	-10.2609
▁Hotels	-10.2614
▁likely	-10.2635
▁waste	-10.2636
▁switch	-10.2641
▁salad	-10.2645
▁moving	-10.2649
▁guide	-10.2652
▁entered	-10.2684
▁event	-10.2685
▁personally	-10.2686
▁villa	-10.2694
▁experiences	-10.2709
▁musty	-10.2721
▁power	-10.2723
▁includes	-10.2735
▁promised	-10.2744
▁Fantastic	-10.2753
▁Manager	-10.2759
▁firm	-10.2769
▁drinking	-10.2772
▁feels	-10.2779
▁wanting	-10.2781
▁welcomed	-10.2785
M	-10.2809
▁effort	-10.2834
▁mold	-10.2836
▁bartender	-10.2836
▁rated	-10.2841
▁Make	-10.2849
▁crowds	-10.2856
▁response	-10.2887
▁occasions	-10.2899
▁mother	-10.2902
▁figure	-10.2909
▁Centre	-10.2918
great	-10.2918
▁exceptionally	-10.2921
▁Air	-10.294
▁seafood	-10.2958
▁flowers	-10.2958
▁Road	-10.2959
▁speed	-10.2966
▁Mandalay	-10.2978
▁trendy	-10.2985
▁tons	-10.2989
▁delightful	-10.2993
▁state	-10.2996
▁spotlessly	-10.2996
less	-10.2997
about	-10.2997
▁Please	-10.3003
ie	-10.3015
▁Marco	-10.3016
▁cake	-10.3022
▁famous	-10.3023
▁signs	-10.303
▁Despite	-10.3037
D	-10.304
P	-10.3041
▁waves	-10.3043
▁finished	-10.3043
that	-10.3047
▁upstairs	-10.3049
▁transfer	-10.3067
our	-10.3073
F	-10.3074
▁sleeper	-10.31
▁junior	-10.3111
▁alarm	-10.3114
▁print	-10.3119
▁ample	-10.3121
▁popular	-10.314
▁whenever	-10.3141
▁fell	-10.3143
▁Did	-10.3149
off	-10.3159
▁disgusting	-10.3169
from	-10.3176
▁Big	-10.3188
▁AND	-10.3195
▁suitcases	-10.3196
▁Didn	-10.32
▁touches	-10.3204
▁adjoining	-10.3211
especially	-10.3218
▁passes	-10.3233
▁multiple	-10.3244
▁refund	-10.3249
▁Secrets	-10.3252
is	-10.3253
E	-10.3263
▁lit	-10.327
▁nightly	-10.3271
▁Downtown	-10.3281
▁$50	-10.3282
▁dry	-10.3312
▁Lovely	-10.3318
▁agreed	-10.332
▁starting	-10.3325
▁Got	-10.3329
2	-10.3329
▁hassle	-10.3332
▁Expedia	-10.3342
▁newer	-10.3369
▁sell	-10.3369
▁reasons	-10.3374
▁piece	-10.3388
▁recommendation	-10.339
▁therefore	-10.3406
▁beside	-10.3406
▁22	-10.3409
▁waiters	-10.342
▁bedrooms	-10.3424
▁actual	-10.3429
nt	-10.3433
▁final	-10.3436
▁bellman	-10.3438
▁west	-10.3469
▁breads	-10.347
▁character	-10.347
▁maids	-10.3481
▁wants	-10.3487
▁position	-10.349
▁SF	-10.3495
▁against	-10.3496
▁lazy	-10.3499
▁features	-10.3499
€“	-10.3503
▁Mosque	-10.3515
▁overly	-10.3517
▁en	-10.3525
▁flights	-10.353
▁ages	-10.3531
▁February	-10.3535
▁upper	-10.3535
▁mainly	-10.3539
▁UK	-10.3542
▁purchase	-10.355
hotel	-10.3555
▁cups	-10.3555
▁cookies	-10.3564
▁sounds	-10.3575
▁$25	-10.3579
▁bucks	-10.3589
▁research	-10.3592
▁lifts	-10.3611
▁rock	-10.3611
do	-10.3614
▁Try	-10.3618
▁grab	-10.3622
f	-10.3624
▁noon	-10.3628
▁knowledgeable	-10.3629
▁personnel	-10.364
▁joke	-10.3643
▁locations	-10.3653
▁opportunity	-10.3655
▁visitors	-10.3664
▁o	-10.3668
▁d	-10.3673
▁celebrate	-10.3674
▁Mall	-10.3676
▁suggested	-10.3681
▁possibly	-10.3684
▁Star	-10.3689
▁clock	-10.3692
▁helping	-10.3693
▁date	-10.3696
▁Take	-10.3697
▁gardens	-10.3699
▁duty	-10.3705
▁Piazza	-10.3711
▁basement	-10.3712
▁haven	-10.3714
▁eventually	-10.3718
▁meats	-10.3723
▁(2	-10.3726
▁Express	-10.3727
▁presented	-10.3731
▁ridiculous	-10.3748
only	-10.3749
▁units	-10.3754
▁Right	-10.3755
▁opted	-10.3777
▁Cons	-10.3785
▁fill	-10.3797
coffee	-10.3798
u	-10.3801
▁museums	-10.3801
▁refurbished	-10.3802
▁locked	-10.3809
▁ladies	-10.3838
▁casinos	-10.384
▁exceeded	-10.3843
▁telling	-10.3846
▁dropped	-10.3847
end	-10.3851
▁smooth	-10.3851
▁Grill	-10.3865
▁M	-10.3867
▁helpfull	-10.3867
1	-10.3874
▁wardrobe	-10.3876
▁attending	-10.388
▁funny	-10.3884
▁renovations	-10.3886
▁mine	-10.3905
▁activity	-10.3922
▁reserve	-10.3929
▁museum	-10.394
▁fruits	-10.3941
▁s	-10.3941
▁serving	-10.3942
▁F	-10.3953
▁serves	-10.3974
▁cant	-10.3982
▁parked	-10.3982
▁Puerto	-10.399
▁eye	-10.3998
▁bartenders	-10.4003
▁info	-10.4016
▁pulled	-10.4016
▁meat	-10.4018
▁heading	-10.4025
▁loads	-10.4028
▁boys	-10.4042
▁terminal	-10.4046
▁Western	-10.4051
▁Fairmont	-10.4055
▁..	-10.4059
▁Wi	-10.4079
▁player	-10.4087
▁originally	-10.41
▁deposit	-10.4106
▁lacking	-10.4112
▁bug	-10.4121
▁nightlife	-10.4127
▁easier	-10.4137
▁traditional	-10.4156
▁Let	-10.4161
▁Building	-10.4165
▁nearest	-10.4166
▁realize	-10.417
▁23	-10.4189
▁sauna	-10.419
▁correct	-10.4192
▁Marina	-10.4211
▁history	-10.4218
▁dog	-10.4218
▁People	-10.4219
▁lake	-10.4233
▁school	-10.4236
mins	-10.4243
▁presentation	-10.4252
▁necessary	-10.4254
▁Anyway	-10.4258
▁Went	-10.4265
▁shape	-10.428
▁Bridge	-10.4284
▁fees	-10.4295
▁DO	-10.4317
▁degrees	-10.4323
▁harbor	-10.4338
▁fountain	-10.4341
▁warned	-10.4342
▁Orchard	-10.4348
▁types	-10.4357
▁shown	-10.4373
▁mix	-10.4376
▁robes	-10.439
......	-10.4394
▁noted	-10.4408
▁frequent	-10.4418
▁sunset	-10.4424
▁Golden	-10.4431
▁journey	-10.4434
▁posted	-10.444
▁kid	-10.4441
▁roll	-10.4443
▁pack	-10.4459
▁$30	-10.4466
▁Lobby	-10.4469
▁sold	-10.447
▁post	-10.4478
▁HK	-10.448
▁treatment	-10.448
line	-10.4485
This	-10.4498
▁Mayan	-10.4506
▁Me	-10.4511
▁fall	-10.4513
▁spring	-10.4516
?)	-10.4524
▁lived	-10.4525
V	-10.4527
▁corridor	-10.4533
▁trains	-10.4536
▁Canada	-10.4539
▁regarding	-10.4541
▁throw	-10.455
R	-10.4551
▁inviting	-10.4554
▁Lounge	-10.4554
▁@	-10.4555
▁wood	-10.4562
▁plate	-10.4574
by	-10.4575
▁par	-10.4577
▁accomodations	-10.4589
▁seats	-10.459
▁negatives	-10.4601
▁language	-10.4606
of	-10.4617
▁exercise	-10.4628
▁passed	-10.4637
If	-10.4645
▁Chinese	-10.4646
▁cleaner	-10.4655
▁route	-10.4657
▁fountains	-10.466
▁HUGE	-10.4661
▁destination	-10.4669
▁Michigan	-10.4674
▁compare	-10.4674
▁concern	-10.4688
▁bagels	-10.4689
▁linen	-10.4697
▁trolley	-10.4703
▁Monday	-10.4715
▁stays	-10.4721
▁providing	-10.4728
▁East	-10.4739
▁Maya	-10.4745
▁Water	-10.4745
▁written	-10.4745
▁heating	-10.4749
▁winter	-10.4751
▁accommodate	-10.4758
▁admit	-10.4774
▁traveller	-10.4784
▁removed	-10.4785
▁BUT	-10.4787
▁quaint	-10.479
▁ensure	-10.4793
▁alcohol	-10.4796
▁Riviera	-10.4803
▁How	-10.4805
▁theatre	-10.4812
▁rough	-10.4813
▁become	-10.4815
▁slippers	-10.4824
▁Dubai	-10.4824
▁boarding	-10.4827
▁shabby	-10.4837
▁Pros	-10.484
▁Hard	-10.4842
▁wonder	-10.4854
▁upset	-10.4854
▁cook	-10.4865
▁unable	-10.4872
▁waitress	-10.4909
▁bustle	-10.4917
▁remodeled	-10.494
▁Pacific	-10.4946
▁shame	-10.4949
▁monorail	-10.4952
▁safety	-10.4953
▁MRT	-10.4953
▁surrounded	-10.4963
▁Opera	-10.498
▁hill	-10.4983
▁entry	-10.4996
▁ALL	-10.4997
▁Chinatown	-10.5006
inclusive	-10.5009
▁decide	-10.5011
▁surprisingly	-10.5014
na	-10.502
▁drivers	-10.5037
▁police	-10.5037
▁occasion	-10.5046
▁animals	-10.505
▁Quay	-10.5052
▁talked	-10.5056
▁cross	-10.506
▁calm	-10.5074
AM	-10.5075
▁Valet	-10.5077
▁groups	-10.5083
3	-10.5089
▁couldnt	-10.5097
▁attend	-10.511
▁tipped	-10.5112
▁Napa	-10.5115
▁period	-10.5126
▁du	-10.5131
▁studio	-10.5134
▁plane	-10.5145
▁rolls	-10.5152
▁considered	-10.5156
▁hip	-10.5165
▁showing	-10.5167
▁weird	-10.5174
▁2011	-10.5181
L	-10.5182
▁suitcase	-10.5185
▁generous	-10.519
O	-10.5196
▁handle	-10.5199
▁pot	-10.5201
▁learned	-10.5203
▁5-	-10.521
▁hands	-10.521
▁Located	-10.5215
▁body	-10.5221
▁lay	-10.5222
▁washer	-10.5227
▁ship	-10.5232
▁PM	-10.5258
10	-10.5261
▁balconies	-10.527
▁excited	-10.5273
▁River	-10.5275
▁purpose	-10.5275
▁2011.	-10.5277
▁slight	-10.5278
▁10-15	-10.528
▁watched	-10.5286
▁answered	-10.5287
▁blast	-10.5288
▁suppose	-10.5295
K	-10.5297
▁policy	-10.5302
▁60	-10.5304
▁assistance	-10.5308
W	-10.5311
▁afford	-10.5315
▁cell	-10.5317
▁extended	-10.5323
4	-10.5328
▁international	-10.5329
▁assist	-10.534
ok	-10.5341
▁triple	-10.5347
▁writing	-10.535
▁Dominican	-10.5353
▁figured	-10.5354
▁wished	-10.536
▁clubs	-10.5362
▁waffles	-10.5363
▁bank	-10.5365
▁hustle	-10.5377
including	-10.5378
▁entering	-10.5381
▁serious	-10.5386
▁queue	-10.5391
▁confirmation	-10.5398
▁slide	-10.5401
▁nervous	-10.5404
▁hesitation	-10.5407
down	-10.542
▁cigarette	-10.5427
▁Walking	-10.5429
▁gentleman	-10.543
▁muffins	-10.5435
▁tile	-10.5443
▁grill	-10.5448
▁drawback	-10.5452
side	-10.5454
▁frequently	-10.5461
▁smiling	-10.5463
▁1.	-10.5464
▁appear	-10.5469
▁$	-10.5471
good	-10.5479
▁Gran	-10.549
▁excursions	-10.5499
▁putting	-10.5502
▁updating	-10.5509
▁headed	-10.5513
▁Though	-10.5519
▁State	-10.5522
▁band	-10.5529
▁absolute	-10.5537
way	-10.5543
he	-10.5561
be	-10.5567
▁advisor	-10.5584
▁depending	-10.5589
▁constant	-10.5594
▁interest	-10.5594
▁Tripadvisor	-10.5606
▁premium	-10.5608
▁hidden	-10.5611
▁form	-10.5621
▁workers	-10.5623
▁TripAdvisor	-10.5626
▁decision	-10.5627
▁Coffee	-10.5639
▁cause	-10.5643
▁purchased	-10.5648
▁inconvenience	-10.565
▁highlight	-10.5651
▁east	-10.5651
▁caught	-10.5657
▁Still	-10.5659
▁sinks	-10.5661
▁sandwiches	-10.5669
▁magnificent	-10.5677
▁Mar	-10.57
▁suit	-10.5704
▁exit	-10.5704
▁doorman	-10.5707
▁weekends	-10.5709
▁Villa	-10.5723
▁Ok	-10.5734
▁favourite	-10.5741
▁Santa	-10.5742
▁sad	-10.5751
▁seriously	-10.5757
▁plates	-10.5757
▁refreshing	-10.5757
▁boy	-10.5775
▁neighbors	-10.5778
▁pain	-10.5782
▁comparison	-10.5785
▁Wharf	-10.5786
▁highway	-10.5792
▁dust	-10.5796
▁edge	-10.5798
▁contemporary	-10.5799
▁flying	-10.5805
▁Asian	-10.582
▁strongly	-10.5829
▁beware	-10.583
▁regret	-10.5843
▁disco	-10.5864
▁mediocre	-10.5866
▁26	-10.587
▁rocks	-10.5875
▁attended	-10.5876
▁sliding	-10.5877
▁sales	-10.5878
▁cart	-10.5878
▁Large	-10.5884
▁touristy	-10.5888
though	-10.5889
▁Desk	-10.5897
▁fab	-10.5906
▁trash	-10.5907
▁seperate	-10.5914
▁tiles	-10.592
▁neither	-10.5923
▁appears	-10.5931
▁corridors	-10.5932
▁recommending	-10.5944
site	-10.595
▁impeccable	-10.5957
▁environment	-10.5978
▁vegas	-10.5987
▁Florida	-10.599
sized	-10.5998
▁cheapest	-10.603
▁assured	-10.6036
▁follow	-10.604
▁breathtaking	-10.6041
old	-10.6048
est	-10.605
▁words	-10.6054
▁begin	-10.6058
▁conversation	-10.606
▁chic	-10.6071
▁n	-10.6072
▁spray	-10.6077
ng	-10.6084
▁result	-10.6085
▁hairdryer	-10.6097
▁Feb	-10.6098
▁report	-10.6109
▁!!	-10.611
▁scene	-10.6113
▁alternative	-10.6117
▁dead	-10.6124
▁scrambled	-10.6133
▁explain	-10.6134
▁visits	-10.6136
▁drain	-10.6146
▁port	-10.6156
▁minimal	-10.6158
▁ceilings	-10.6164
▁gotten	-10.6164
▁listen	-10.6168
▁De	-10.617
??	-10.6183
▁tripadvisor	-10.6203
▁sheet	-10.6208
▁described	-10.6215
▁workout	-10.6222
▁classy	-10.623
▁ham	-10.6233
▁obvious	-10.6242
ting	-10.6244
▁VIP	-10.6249
▁Broadway	-10.6258
▁proper	-10.6261
view	-10.6263
▁poorly	-10.6268
▁initially	-10.629
▁changing	-10.629
▁Lahaina	-10.6292
▁bunch	-10.6294
▁account	-10.6297
▁die	-10.6299
▁path	-10.63
▁cheeses	-10.6301
▁bike	-10.6307
▁finish	-10.6308
▁Trevi	-10.6318
▁hostel	-10.6324
▁Starwood	-10.6324
ity	-10.6325
G	-10.6325
▁R	-10.633
$	-10.633
▁bringing	-10.634
▁present	-10.6345
▁happily	-10.6348
▁1)	-10.6354
▁reported	-10.6357
w	-10.6357
▁hoping	-10.6377
▁closest	-10.6385
▁plug	-10.6398
▁sufficient	-10.6404
man	-10.6408
well	-10.6409
▁Caribbean	-10.6413
de	-10.6417
▁90	-10.642
▁Mr	-10.6424
▁tend	-10.6433
▁MTR	-10.6435
▁dance	-10.6439
▁kettle	-10.6441
▁27	-10.6444
▁K	-10.6445
▁ways	-10.6449
▁ironing	-10.6457
▁residential	-10.6458
▁Restaurants	-10.6464
▁NEVER	-10.6473
▁Over	-10.6475
▁attendant	-10.6485
▁approx	-10.6486
▁basis	-10.6491
▁nowhere	-10.6491
▁knowing	-10.6493
▁exchange	-10.6496
▁Omni	-10.6499
▁contacted	-10.6505
▁ambiance	-10.6515
▁boats	-10.6521
▁Why	-10.6522
▁gracious	-10.6531
▁confirmed	-10.6541
▁rip	-10.6565
PM	-10.6571
▁Luckily	-10.6576
▁2)	-10.6577
ation	-10.6578
▁spanish	-10.6583
▁Wailea	-10.6586
▁steam	-10.6586
▁Harbor	-10.6588
▁Super	-10.6588
see	-10.6597
▁charging	-10.66
▁connecting	-10.6607
▁Playacar	-10.6609
▁Little	-10.6618
▁among	-10.6642
▁Steps	-10.6646
▁SO	-10.6663
▁yards	-10.6664
▁Gold	-10.6665
▁cosy	-10.6666
▁cities	-10.6669
▁hate	-10.6681
▁28	-10.6681
▁Carlton	-10.6696
▁Bus	-10.6697
▁rep	-10.6702
▁fixtures	-10.6705
▁express	-10.6723
▁Walk	-10.6724
▁ear	-10.6727
▁Lake	-10.6727
shower	-10.6734
▁pushed	-10.6734
▁USA	-10.6738
▁married	-10.6741
▁reviewer	-10.6742
▁hungry	-10.6743
▁thick	-10.6745
▁tastefully	-10.6753
▁Maria	-10.6756
▁Bourbon	-10.6768
▁learn	-10.6769
▁Get	-10.6775
▁wise	-10.6777
▁TVs	-10.6786
▁unfriendly	-10.6788
▁maps	-10.6798
▁pasta	-10.68
▁movies	-10.68
▁sushi	-10.6803
▁partial	-10.6818
▁plain	-10.6822
▁master	-10.6827
▁liquor	-10.6833
▁badly	-10.6844
▁neighbourhood	-10.6844
el	-10.6845
▁stood	-10.6846
▁District	-10.6851
▁Absolutely	-10.6861
▁chef	-10.6871
▁apartments	-10.6875
▁dish	-10.6875
▁Empire	-10.688
▁dogs	-10.689
▁dessert	-10.6891
▁st	-10.6895
▁gambling	-10.6895
▁natural	-10.6896
▁About	-10.6897
▁address	-10.6901
▁Point	-10.6902
▁plans	-10.6903
▁International	-10.6904
▁forever	-10.6905
▁cabs	-10.6906
▁unhelpful	-10.6907
▁Last	-10.692
▁lively	-10.6921
▁desired	-10.6923
minute	-10.6933
▁arrange	-10.6942
un	-10.6948
▁penny	-10.6956
▁Palazzo	-10.6965
▁Bali	-10.697
▁surroundings	-10.6985
▁extras	-10.6985
▁taxes	-10.6986
▁Spent	-10.6987
▁Iberostar	-10.6996
▁slots	-10.7002
▁shocked	-10.7003
ted	-10.7003
▁assigned	-10.7013
▁spaces	-10.7018
*	-10.7021
per	-10.7026
▁unlike	-10.7028
▁varied	-10.7031
▁Needless	-10.7033
▁apology	-10.7034
▁200	-10.7035
▁deals	-10.7043
▁marina	-10.7053
▁$1	-10.7053
▁remembered	-10.7054
▁Love	-10.706
▁names	-10.7078
▁schedule	-10.7083
▁egg	-10.7093
▁inn	-10.7095
▁TO	-10.711
▁continue	-10.7126
▁helps	-10.713
▁rail	-10.7141
▁Enjoy	-10.7146
ion	-10.7156
us	-10.7158
▁afraid	-10.7165
ic	-10.7169
▁oh	-10.7173
top	-10.7176
▁Platinum	-10.718
▁Aria	-10.718
---	-10.7183
▁rush	-10.7187
▁sausage	-10.7191
ment	-10.72
▁5-10	-10.7201
▁teenagers	-10.7205
▁Mark	-10.7207
œ	-10.7207
▁Queen	-10.721
▁sandwich	-10.7218
5	-10.7221
▁program	-10.7221
▁paradise	-10.7228
▁checkin	-10.7233
▁fourth	-10.7243
▁palm	-10.7252
▁cheerful	-10.7255
▁theater	-10.7256
▁mattresses	-10.7258
▁eager	-10.7259
▁Arrived	-10.726
▁Deluxe	-10.7273
▁drawers	-10.7289
▁dealt	-10.7291
▁tasted	-10.7297
▁35	-10.73
▁peace	-10.73
▁nasty	-10.7303
rs	-10.7304
▁garbage	-10.7312
▁accomodation	-10.7312
▁Executive	-10.7331
▁Pantheon	-10.7333
▁cooking	-10.7343
▁Wifi	-10.7347
▁chocolates	-10.7353
▁Year	-10.7358
age	-10.737
over	-10.7373
▁H	-10.7381
▁alley	-10.7388
▁co	-10.7388
▁cons	-10.7393
▁cancelled	-10.7399
▁Before	-10.7418
▁$200	-10.7419
▁aspect	-10.7421
right	-10.7425
▁pointed	-10.7428
▁boardwalk	-10.7431
▁followed	-10.7431
▁pancakes	-10.7433
▁USD	-10.7436
▁DVD	-10.7438
▁$40	-10.7439
▁entertaining	-10.7445
▁Dallas	-10.7452
▁Amazing	-10.7453
▁foods	-10.7457
▁4-	-10.7462
▁unpleasant	-10.7463
▁ambience	-10.7465
Fi	-10.7494
▁plugs	-10.7495
▁consisted	-10.75
▁plush	-10.7504
Y	-10.751
▁California	-10.7514
▁Sofitel	-10.7515
▁80	-10.7522
▁Time	-10.7522
▁Perhaps	-10.754
▁falling	-10.7553
▁van	-10.7553
▁Princess	-10.7562
▁pub	-10.7572
house	-10.7573
▁enormous	-10.7578
They	-10.7583
▁deli	-10.7587
▁prime	-10.7594
▁snorkel	-10.76
▁Too	-10.7602
▁Jan	-10.7603
▁Or	-10.7605
▁leisure	-10.7607
▁vanity	-10.7608
Our	-10.7613
▁loungers	-10.7618
▁Pier	-10.7627
▁Thursday	-10.7633
▁Australia	-10.7637
▁factor	-10.7643
▁knows	-10.7646
▁hey	-10.7647
▁mom	-10.765
▁dancing	-10.765
▁levels	-10.7655
▁beverages	-10.7656
鈥檚	-10.7671
▁server	-10.7675
▁Hampton	-10.7679
▁Rico	-10.7687
▁shouldn	-10.7691
▁nobody	-10.7701
▁comp	-10.771
ies	-10.7715
▁Circus	-10.7729
▁events	-10.774
▁confirm	-10.7761
▁Bavaro	-10.7761
▁happening	-10.7763
ty	-10.7764
▁resturants	-10.7775
▁Monte	-10.7777
N	-10.778
▁umbrellas	-10.778
▁quarter	-10.7785
▁eaten	-10.779
▁Carlo	-10.7792
▁29	-10.7792
▁row	-10.7792
▁Hotwire	-10.78
▁solid	-10.7803
▁vibe	-10.7805
ry	-10.7805
▁suited	-10.7809
▁birds	-10.7811
▁wind	-10.7832
▁Price	-10.7833
▁$2	-10.7834
▁extensive	-10.7834
▁dingy	-10.7834
▁hung	-10.7836
▁IT	-10.7837
▁photo	-10.784
▁More	-10.784
▁eateries	-10.7841
▁Roma	-10.7842
time	-10.7848
service	-10.7861
▁recomend	-10.7862
don	-10.7865
▁seconds	-10.7865
ful	-10.787
ier	-10.7879
▁Branson	-10.788
▁smells	-10.7883
▁bites	-10.7883
▁stone	-10.7892
!!!!!	-10.7894
▁delighted	-10.7895
▁blankets	-10.7897
▁friendliness	-10.7904
▁supplied	-10.7909
▁Hall	-10.7912
can	-10.7914
where	-10.7914
▁excursion	-10.792
▁tall	-10.7922
▁Dec	-10.7924
▁immediate	-10.7927
▁faces	-10.7933
▁halls	-10.7937
▁Dinner	-10.795
▁Embassy	-10.7951
▁(5	-10.7952
▁nightmare	-10.7955
▁reccomend	-10.7955
▁accomodate	-10.7965
▁lagoon	-10.797
▁italian	-10.7972
▁unusual	-10.7975
▁anytime	-10.799
▁daughters	-10.8005
▁Ask	-10.801
te	-10.8011
▁weak	-10.8013
▁beauty	-10.8016
▁Apple	-10.8016
▁bikes	-10.8022
▁chips	-10.8027
▁concerns	-10.8032
▁younger	-10.8039
▁accept	-10.8044
▁smallest	-10.8052
▁establishment	-10.8061
▁broke	-10.8065
▁waterfront	-10.8075
▁crew	-10.8084
▁LCD	-10.8084
▁warning	-10.809
My	-10.81
friendly	-10.8102
▁Bring	-10.8106
▁amazed	-10.8109
▁classic	-10.8112
▁hole	-10.8114
▁sides	-10.8118
▁slot	-10.8118
▁foyer	-10.8135
▁shelf	-10.8142
▁leaves	-10.8143
▁Al	-10.8145
ia	-10.8154
▁funky	-10.8163
▁Rue	-10.8176
▁priceline	-10.818
▁kinds	-10.8192
▁cases	-10.8193
▁outlets	-10.8194
▁Travel	-10.8199
▁handled	-10.82
ling	-10.8214
▁(3	-10.8217
▁boring	-10.8223
▁seven	-10.8229
▁servers	-10.8239
▁channel	-10.824
No	-10.8253
▁buying	-10.8263
▁Bad	-10.8263
▁G	-10.8273
▁passing	-10.8273
▁Drinks	-10.8274
▁blanket	-10.8277
▁Turkish	-10.8281
▁unbelievable	-10.8287
▁Kingdom	-10.8291
▁whatsoever	-10.8297
▁news	-10.8302
▁dinners	-10.8308
except	-10.8309
who	-10.8309
▁avenue	-10.831
▁respect	-10.8312
▁eyes	-10.8314
▁began	-10.832
▁dirt	-10.8321
▁majority	-10.8355
▁gate	-10.837
ce	-10.8371
suite	-10.8372
▁Port	-10.8384
▁$3	-10.8387
nice	-10.8387
▁damp	-10.8387
▁fireplace	-10.8395
▁tubs	-10.8395
▁Instead	-10.8408
▁wonderfully	-10.8409
▁heartbeat	-10.8423
▁N	-10.8428
▁dump	-10.8428
▁courtesy	-10.8431
▁closing	-10.8435
▁Dam	-10.8437
me	-10.845
▁listed	-10.8451
▁di	-10.8452
▁resturant	-10.8458
▁def	-10.8462
▁transit	-10.8462
▁specific	-10.8473
▁TI	-10.8475
▁Court	-10.8475
▁3-	-10.8491
ter	-10.8492
▁soda	-10.8493
▁tough	-10.851
▁HOTEL	-10.8512
▁disturb	-10.8516
▁supply	-10.8522
▁Radisson	-10.8524
▁anymore	-10.8529
▁yummy	-10.8537
▁regularly	-10.854
▁freshly	-10.8542
▁typically	-10.8549
▁hospital	-10.8549
▁switched	-10.8564
▁Second	-10.8566
after	-10.8569
▁brown	-10.8569
▁Note	-10.857
pool	-10.8575
▁require	-10.858
▁describe	-10.8587
▁comparable	-10.859
mail	-10.8592
▁historical	-10.8593
▁LAX	-10.8596
▁teenage	-10.8598
▁equally	-10.8603
All	-10.8606
▁peeling	-10.8611
▁washing	-10.8612
▁palace	-10.8613
▁Signature	-10.862
▁Rambla	-10.8622
▁rides	-10.8623
▁cooler	-10.8631
▁Hawaiian	-10.8638
▁tap	-10.8641
▁earplugs	-10.8647
▁LOVED	-10.8654
▁umbrella	-10.8663
▁Magic	-10.8676
▁jet	-10.8683
▁?	-10.8692
▁gold	-10.8698
ley	-10.8701
▁walkway	-10.8702
▁serviced	-10.8706
▁improve	-10.8709
lo	-10.8715
▁100%	-10.8719
▁Notre	-10.8719
▁FREE	-10.8727
▁relaxation	-10.8728
▁IS	-10.8734
▁rarely	-10.8736
▁Always	-10.8742
▁pet	-10.8744
▁casual	-10.8744
▁Could	-10.8749
▁wallpaper	-10.8751
▁lobster	-10.8755
▁arrangements	-10.8758
▁jungle	-10.8764
TM	-10.8766
▁stuffy	-10.8767
▁selling	-10.8768
▁peak	-10.8781
▁mexican	-10.8781
▁Probably	-10.8788
▁dressed	-10.88
▁specifically	-10.8819
▁pop	-10.8825
▁tennis	-10.8827
what	-10.8827
▁Real	-10.8828
bed	-10.883
▁sounded	-10.8834
▁Ka	-10.8836
);	-10.8843
▁baggage	-10.8847
▁YOU	-10.8849
▁emailed	-10.885
▁Americans	-10.8854
▁escape	-10.8855
Overall	-10.8862
▁continued	-10.8864
ch	-10.8872
▁portions	-10.8883
▁Comfortable	-10.8889
▁everytime	-10.889
▁5*	-10.8891
▁travels	-10.8893
▁wont	-10.8898
▁health	-10.8899
▁delight	-10.8906
▁wrote	-10.891
▁Mile	-10.8916
yes	-10.8916
▁voucher	-10.8919
▁gas	-10.892
▁stolen	-10.8924
▁Back	-10.8926
You	-10.8934
▁message	-10.8937
▁noises	-10.8938
▁concert	-10.8939
▁selected	-10.8941
▁freeway	-10.8942
▁hoped	-10.8943
▁college	-10.8946
▁plaza	-10.8948
▁individual	-10.895
▁owned	-10.8951
▁Dame	-10.8955
▁Wow	-10.8958
▁fireworks	-10.8958
▁improved	-10.8959
▁Tokyo	-10.8972
▁marks	-10.8984
▁match	-10.8984
▁heater	-10.8987
▁tray	-10.9006
▁reminded	-10.901
▁odor	-10.9013
▁woken	-10.9024
▁Phoenix	-10.903
▁smelly	-10.9031
In	-10.9035
▁minimum	-10.9035
▁Lodge	-10.9041
▁architecture	-10.9046
▁$12	-10.9048
▁cancel	-10.9048
se	-10.9052
▁wing	-10.9054
▁wooden	-10.906
▁gross	-10.906
▁ball	-10.9062
ra	-10.907
▁drunk	-10.907
▁fly	-10.9076
▁meters	-10.9088
▁suitable	-10.91
▁awake	-10.9112
▁mountains	-10.9118
▁2010	-10.9125
▁changes	-10.9126
▁code	-10.9132
`	-10.9133
▁Which	-10.9136
▁settled	-10.9138
▁manner	-10.9147
▁housekeeper	-10.9152
▁mess	-10.9156
▁length	-10.9157
▁complementary	-10.9171
▁Diamond	-10.9171
▁IN	-10.9192
▁allows	-10.9196
▁saving	-10.9207
▁dine	-10.9207
when	-10.921
▁plasma	-10.923
▁genuinely	-10.9237
▁Apparently	-10.924
▁70	-10.9247
con	-10.925
▁Motel	-10.9251
▁coupon	-10.9271
▁occupied	-10.9278
▁suggestion	-10.9279
▁claim	-10.9285
6	-10.9292
▁turns	-10.9292
▁newspaper	-10.9292
▁Rio	-10.9293
▁screaming	-10.9299
▁lamp	-10.9301
ur	-10.9302
▁Bally	-10.9304
▁Paradise	-10.9308
▁department	-10.9329
▁comfortably	-10.9333
▁Re	-10.9337
▁item	-10.9341
▁everybody	-10.9348
▁reached	-10.9369
▁happens	-10.937
▁hike	-10.9372
▁dissapointed	-10.9377
▁flew	-10.9379
▁oasis	-10.9388
▁supplies	-10.9393
▁brother	-10.9396
▁improvement	-10.9396
▁smart	-10.9401
▁pieces	-10.9409
▁Catalunya	-10.9414
▁confusing	-10.9419
▁practically	-10.9424
▁books	-10.9425
▁homeless	-10.9425
▁female	-10.9427
▁annoyed	-10.9428
▁insisted	-10.9432
▁Rialto	-10.9435
▁celebrating	-10.9439
▁wouldnt	-10.944
▁touring	-10.9443
▁Planet	-10.9453
▁V	-10.948
▁rack	-10.9482
▁camera	-10.9492
▁fries	-10.9493
style	-10.9495
▁authentic	-10.9497
▁Shower	-10.9499
▁Courtyard	-10.9502
▁deliver	-10.951
▁repair	-10.951
co	-10.9514
▁Fountain	-10.9515
▁aside	-10.9522
▁amazingly	-10.9525
▁tasting	-10.9534
▁Taxi	-10.9537
▁Excalibur	-10.9542
▁intimate	-10.9542
▁signal	-10.9544
▁ignored	-10.9544
▁freezing	-10.9549
▁benefit	-10.9551
▁Within	-10.9557
▁:-)	-10.956
▁sum	-10.9561
some	-10.9572
???	-10.9583
▁greatest	-10.9584
▁Hill	-10.9586
▁asleep	-10.9587
▁heaven	-10.9589
▁stick	-10.9596
▁join	-10.9597
▁informative	-10.9599
▁corporate	-10.9599
▁importantly	-10.9605
▁lanai	-10.9605
▁$8	-10.9606
▁America	-10.961
▁Louvre	-10.9613
▁Caribe	-10.9615
▁Darling	-10.962
▁scary	-10.9627
H	-10.963
Hotel	-10.9632
▁frustrating	-10.9634
▁AMAZING	-10.9644
▁stepped	-10.9644
▁Top	-10.9644
▁Encore	-10.9663
▁Car	-10.9667
▁[	-10.9675
▁2-	-10.9683
restaurant	-10.9684
▁disappoint	-10.9687
water	-10.9687
▁attempt	-10.9688
▁Convention	-10.9689
▁dishwasher	-10.9689
▁manage	-10.9689
os	-10.9692
size	-10.9698
▁boiled	-10.9699
▁jam	-10.9703
7	-10.9703
▁climb	-10.9713
▁allocated	-10.9713
▁ideally	-10.9715
▁3)	-10.9732
▁airline	-10.9732
▁lives	-10.9735
▁training	-10.9736
▁meetings	-10.9737
ally	-10.9751
▁STAY	-10.9753
▁frills	-10.9754
▁Line	-10.9773
tea	-10.9786
▁forced	-10.9795
ne	-10.9801
▁toward	-10.9805
▁walkable	-10.981
▁telephone	-10.9829
▁Casa	-10.9831
▁kinda	-10.9833
▁positives	-10.9837
▁ring	-10.984
▁Waldorf	-10.9845
▁mildew	-10.9855
▁leading	-10.986
▁fellow	-10.9864
▁color	-10.9865
▁bakery	-10.9867
▁Floor	-10.9875
▁caused	-10.9877
▁atrium	-10.9879
▁starts	-10.9881
8	-10.9888
▁sets	-10.9889
▁bite	-10.9891
▁dress	-10.9893
▁Subway	-10.9893
▁dock	-10.99
▁Duval	-10.9901
▁failed	-10.9904
▁greeting	-10.9905
▁ill	-10.9908
▁involved	-10.9908
▁BEST	-10.9913
▁Victoria	-10.9915
▁assume	-10.9932
▁soup	-10.9933
▁burgers	-10.9935
▁Con	-10.9936
▁chosen	-10.9938
▁holidays	-10.9939
▁thrilled	-10.994
▁sharing	-10.9944
▁gripe	-10.9956
▁coupons	-10.9957
▁tipping	-10.996
▁th	-10.9962
▁rare	-10.9964
▁host	-10.9965
▁jump	-10.9971
▁connect	-10.9976
▁holes	-10.9977
▁decoration	-10.9983
▁oceanfront	-10.9983
▁accurate	-10.9986
▁ruined	-10.9986
▁outlet	-10.999
▁completed	-11.0001
▁compact	-11.0001
9	-11.0013
▁repeat	-11.0023
▁zoo	-11.0025
▁vendors	-11.0028
▁Art	-11.0036
▁Jacuzzi	-11.004
▁named	-11.0043
▁15-20	-11.0045
▁2-3	-11.0051
▁culture	-11.0055
hour	-11.0055
▁fans	-11.0063
▁yellow	-11.0065
▁gamble	-11.0066
fridge	-11.007
▁fluffy	-11.0082
ri	-11.0083
▁l	-11.0089
ta	-11.0097
ton	-11.011
▁dive	-11.0114
▁blocked	-11.0117
z	-11.0118
▁Mandarin	-11.0119
▁lush	-11.0122
▁sky	-11.013
▁ease	-11.014
▁today	-11.0141
▁electric	-11.0147
▁radio	-11.0148
▁Tulum	-11.0152
▁combination	-11.0154
▁volleyball	-11.0154
▁exterior	-11.0156
▁ants	-11.0161
▁stress	-11.0163
▁church	-11.0163
ED	-11.0166
▁breath	-11.0173
▁Beware	-11.0182
Â	-11.0182
▁Fortunately	-11.0187
▁unsafe	-11.0193
▁conditioned	-11.0195
▁31	-11.0197
▁beef	-11.021
▁virtually	-11.0212
▁inconvenient	-11.0213
▁availability	-11.0214
▁Guest	-11.0218
▁greet	-11.0219
▁lie	-11.0221
▁leg	-11.0232
▁vehicle	-11.0232
▁approached	-11.0234
▁Kimpton	-11.0247
mo	-11.0247
▁skip	-11.0248
▁shuttles	-11.0248
▁seated	-11.0252
▁Continental	-11.0257
▁v	-11.0262
▁doormen	-11.0264
▁nature	-11.0264
▁inner	-11.0265
▁trust	-11.027
▁guard	-11.0271
▁painted	-11.0272
▁Much	-11.0277
▁dresser	-11.0277
▁printed	-11.0282
▁search	-11.0289
▁Shopping	-11.029
▁delivery	-11.0296
▁approximately	-11.0297
▁states	-11.0305
▁(1	-11.0308
▁massages	-11.0311
▁shrimp	-11.0318
▁(10	-11.0326
▁favor	-11.0335
▁Happy	-11.0336
▁track	-11.034
▁hrs	-11.0342
▁$7	-11.0352
▁exciting	-11.0356
more	-11.0358
▁10:30	-11.0358
▁sunny	-11.0361
▁beers	-11.037
▁walks	-11.0382
▁appetizers	-11.0385
ary	-11.0391
▁navigate	-11.0391
▁ripped	-11.0394
▁coast	-11.0398
bedroom	-11.0399
▁Studios	-11.0404
▁Especially	-11.0404
▁temp	-11.0404
▁Quiet	-11.0407
▁handed	-11.041
▁dream	-11.0427
▁China	-11.043
▁soaking	-11.0433
clean	-11.0437
▁choosing	-11.044
▁J	-11.0442
▁bowl	-11.0444
▁attraction	-11.0444
▁France	-11.0447
▁stretch	-11.045
▁discounted	-11.0461
U	-11.0463
▁Harrah	-11.0465
▁tucked	-11.0466
resort	-11.0467
▁Tour	-11.0473
▁Eve	-11.0476
▁Tip	-11.0479
▁covers	-11.0485
▁loose	-11.0489
ma	-11.0492
▁Pizza	-11.0497
▁burger	-11.0497
▁resolved	-11.0498
▁terribly	-11.0502
▁tastes	-11.0502
▁chill	-11.0503
▁count	-11.0505
▁commented	-11.0507
▁pier	-11.0507
▁nite	-11.051
▁hundred	-11.0514
▁sub	-11.0516
▁village	-11.0521
▁trams	-11.0528
▁category	-11.0538
▁im	-11.0539
▁hire	-11.0543
▁venture	-11.0544
▁Valley	-11.0551
breakfast	-11.0554
▁Found	-11.0556
ro	-11.0557
▁disney	-11.0561
▁stale	-11.0564
▁Kowloon	-11.0569
▁cakes	-11.057
▁singles	-11.0571
check	-11.0574
▁opens	-11.0583
▁Keep	-11.0597
▁incident	-11.0597
▁Colosseum	-11.06
▁unacceptable	-11.0603
▁Caesars	-11.0606
▁proved	-11.0609
▁smiles	-11.0613
▁replace	-11.0614
▁cabana	-11.062
▁largest	-11.0629
▁Sandos	-11.0629
▁Vacation	-11.0632
▁spoiled	-11.0636
▁rum	-11.0641
▁brunch	-11.0642
▁cuisine	-11.0643
▁rang	-11.0651
▁surf	-11.0662
▁cared	-11.0666
ft	-11.0674
▁highest	-11.0676
▁m	-11.0691
▁Maroma	-11.0692
▁organized	-11.0693
▁giant	-11.0695
▁2007	-11.0697
▁Travelodge	-11.0704
▁markets	-11.0707
▁summary	-11.071
▁besides	-11.0711
▁scheduled	-11.0715
▁unlimited	-11.0721
▁2008	-11.0726
▁!!!	-11.0727
▁video	-11.0728
▁Wyndham	-11.0732
▁exhausted	-11.0738
▁Los	-11.0739
▁genuine	-11.074
▁initial	-11.0742
▁THIS	-11.0745
▁Your	-11.0746
▁weight	-11.0751
▁encounter	-11.0759
▁villas	-11.0759
▁familiar	-11.0761
▁Several	-11.0763
▁Sept	-11.0766
▁Besides	-11.0767
beach	-11.0767
▁sorted	-11.0768
▁replenished	-11.0783
▁update	-11.0786
Room	-11.0788
▁letter	-11.0789
et	-11.0789
▁Spain	-11.079
▁blinds	-11.0794
also	-11.0797
▁2008.	-11.0798
▁WOW	-11.0801
▁knowledge	-11.0825
was	-11.0844
▁tree	-11.0846
▁Gardens	-11.0853
▁malls	-11.0864
▁status	-11.0865
▁Blvd	-11.0867
La	-11.087
]	-11.0873
▁heads	-11.0874
▁energy	-11.0878
▁surely	-11.0884
▁stall	-11.0884
▁turning	-11.0889
red	-11.0894
▁Kids	-11.0895
▁onsite	-11.09
▁hello	-11.0902
▁dressing	-11.0907
▁2007.	-11.0912
▁2010.	-11.0914
▁led	-11.0915
▁remove	-11.0922
ING	-11.0924
▁yr	-11.0927
▁Enjoyed	-11.0934
▁diner	-11.0935
▁Value	-11.0943
king	-11.0944
▁steakhouse	-11.0949
▁beaten	-11.0956
▁towers	-11.0956
maybe	-11.0963
▁drag	-11.0973
▁patient	-11.0975
ca	-11.0976
▁Sol	-11.0978
▁stove	-11.0986
▁basket	-11.0994
▁bland	-11.0998
▁roads	-11.1
li	-11.1004
▁disturbed	-11.1007
▁Hope	-11.1007
▁directed	-11.101
▁#1	-11.1013
▁happier	-11.1024
▁4*	-11.1024
▁6:30	-11.1024
▁Steak	-11.1027
▁Roman	-11.1027
▁Given	-11.1027
▁greatly	-11.1028
▁mood	-11.103
▁Sultanahmet	-11.1035
▁Gaslamp	-11.1051
▁cares	-11.1053
away	-11.1057
▁lose	-11.106
▁phones	-11.1066
▁Forum	-11.1073
▁shot	-11.1079
▁lacked	-11.1084
▁comforter	-11.1087
▁Fisherman	-11.1087
▁Pike	-11.1093
hr	-11.1095
▁Junior	-11.1098
0.00	-11.1098
▁Coast	-11.1103
▁whirlpool	-11.1103
▁rocky	-11.1111
ist	-11.1113
▁JW	-11.1118
▁(4	-11.1127
▁wow	-11.1131
▁porter	-11.1132
led	-11.1133
▁Arc	-11.1135
20	-11.1139
▁stock	-11.114
▁button	-11.1145
▁aircon	-11.1149
▁Oct	-11.1152
▁knock	-11.1155
▁pesos	-11.1155
bus	-11.1162
▁hopefully	-11.1167
▁Any	-11.1172
▁discover	-11.1173
▁landscaping	-11.1175
▁~	-11.1176
▁hearing	-11.1179
▁Hot	-11.1183
▁Ha	-11.1186
▁Kaanapali	-11.1186
▁washed	-11.1187
▁powerful	-11.1195
▁printer	-11.1198
▁aspects	-11.1201
▁bedside	-11.1202
▁Sure	-11.1203
▁Zoo	-11.1207
▁currently	-11.1218
▁picking	-11.1238
▁beverage	-11.1243
▁Melia	-11.1244
▁anybody	-11.1248
▁riding	-11.126
▁Daytona	-11.1263
▁butter	-11.1266
▁land	-11.1268
▁lotion	-11.1276
▁rich	-11.1293
land	-11.1301
▁rear	-11.1302
▁Huge	-11.1303
▁Shuttle	-11.1303
▁sparkling	-11.1308
▁stories	-11.1314
▁vending	-11.1316
▁vouchers	-11.1317
▁filling	-11.1319
▁RIU	-11.132
▁Oriental	-11.1322
▁nightclub	-11.1323
▁hundreds	-11.1325
ar	-11.1355
▁rained	-11.1357
▁selections	-11.1362
▁clothing	-11.1363
▁Nov	-11.1366
▁premises	-11.1366
two	-11.137
▁desserts	-11.137
▁colleagues	-11.1372
▁fried	-11.1375
▁concrete	-11.1378
▁c	-11.1381
▁adventure	-11.1382
ant	-11.1387
▁al	-11.1387
▁prepare	-11.1388
▁Renaissance	-11.1398
▁Xcaret	-11.1409
il	-11.1411
▁lamps	-11.1417
▁wave	-11.1421
▁apologized	-11.1422
▁9:30	-11.143
▁airy	-11.1433
▁push	-11.1435
▁Majestic	-11.1435
▁WIFI	-11.1435
▁brick	-11.1435
▁ordinary	-11.1438
▁stage	-11.1447
▁suspect	-11.1448
air	-11.1448
▁reliable	-11.1449
▁responsive	-11.1454
▁bare	-11.1458
▁panel	-11.1462
▁Tequila	-11.1463
▁Getting	-11.1464
▁bang	-11.1493
▁vacations	-11.1536
▁gourmet	-11.154
▁risk	-11.1544
▁doorstep	-11.1554
▁Cozumel	-11.1555
▁fifth	-11.1555
▁declined	-11.1556
▁TA	-11.1558
▁humid	-11.156
▁managers	-11.1577
▁cater	-11.1578
▁somehow	-11.1581
▁carried	-11.1587
▁meaning	-11.1599
▁Look	-11.1599
ian	-11.1601
▁waitresses	-11.1603
.......	-11.1604
▁windy	-11.1604
▁thus	-11.1613
▁baths	-11.1616
▁trained	-11.1622
▁lessons	-11.1628
▁potential	-11.163
▁scared	-11.1635
▁Baltimore	-11.1635
▁accepted	-11.1638
▁act	-11.1638
▁gladly	-11.164
its	-11.1644
▁definetly	-11.1647
▁salads	-11.1651
▁ugly	-11.1653
▁Entertainment	-11.1656
▁brief	-11.1665
▁WE	-11.1666
▁specialty	-11.1676
▁deserve	-11.169
▁plumbing	-11.169
▁Awesome	-11.1702
▁smoothly	-11.1707
▁blow	-11.1708
ous	-11.1708
▁degree	-11.1713
▁Indian	-11.1723
▁draw	-11.1728
▁tapas	-11.173
priced	-11.173
▁railway	-11.1732
▁drawer	-11.1737
▁vicinity	-11.174
▁tad	-11.1743
▁Tuesday	-11.1746
▁frozen	-11.1749
▁responded	-11.1758
▁Years	-11.1759
▁Residence	-11.1763
▁toilets	-11.1766
▁Mo	-11.1771
▁legs	-11.1771
▁current	-11.1782
▁fiance	-11.1798
▁bathrobes	-11.18
▁forgotten	-11.1802
▁bored	-11.1811
▁AT	-11.1817
▁parties	-11.1821
▁satisfactory	-11.1822
▁Quite	-11.1822
▁smelt	-11.1825
▁split	-11.1828
▁....	-11.1836
▁appearance	-11.1837
▁carts	-11.1844
appointed	-11.1844
▁flush	-11.1846
▁Sunset	-11.1849
▁Steakhouse	-11.1849
ine	-11.1851
▁Easter	-11.1856
▁ROOM	-11.186
ir	-11.186
▁upgrading	-11.186
▁excuse	-11.1864
▁inch	-11.1867
▁John	-11.1869
▁pastry	-11.1875
ha	-11.1883
▁listening	-11.1888
▁multi	-11.189
food	-11.189
▁Avoid	-11.1896
▁exact	-11.1898
▁warmly	-11.1899
▁fortunate	-11.1905
▁Bottom	-11.1911
▁8:30	-11.1911
back	-11.1922
▁metres	-11.1929
▁routes	-11.193
▁=	-11.1933
small	-11.1938
▁AAA	-11.1942
▁Apart	-11.1946
▁Excellence	-11.1947
▁$4	-11.1948
▁lounges	-11.1951
▁clients	-11.1959
▁fitted	-11.1966
▁Thanksgiving	-11.1968
▁ex	-11.1969
▁kindly	-11.1973
▁Tropicana	-11.1977
▁fussy	-11.1979
▁Comfort	-11.1979
▁til	-11.1987
▁criticism	-11.1992
▁deserves	-11.1996
▁warmer	-11.1997
▁consistently	-11.2002
▁Where	-11.2003
▁High	-11.2005
▁Black	-11.2007
▁Show	-11.2013
30	-11.2019
▁shore	-11.2029
▁renting	-11.2034
▁emails	-11.2042
▁healthy	-11.2049
▁unexpected	-11.2052
▁thermostat	-11.2058
▁German	-11.2059
▁dim	-11.2063
▁dis	-11.2064
▁seaweed	-11.2064
▁proceeded	-11.2065
▁utensils	-11.2067
▁liking	-11.207
▁Business	-11.207
▁difficulty	-11.2079
▁portion	-11.2086
▁aged	-11.2088
▁Champs	-11.2092
▁attendants	-11.2098
▁7:30	-11.21
▁dangerous	-11.2116
▁chat	-11.2122
▁pounds	-11.2127
▁Due	-11.2135
▁apple	-11.2147
▁nap	-11.215
▁ordering	-11.2177
▁chains	-11.2181
▁heavenly	-11.2183
!!)	-11.219
▁ONLY	-11.2191
▁secluded	-11.2194
▁entirely	-11.2196
ance	-11.2199
▁guarantee	-11.2204
▁tasteful	-11.2211
▁cap	-11.2211
▁smallish	-11.2223
▁numbers	-11.2232
▁trade	-11.2234
▁Bathrooms	-11.2256
?"	-11.2264
▁fuss	-11.2278
▁priority	-11.2282
▁bucket	-11.2295
▁$300	-11.2318
▁duvet	-11.2326
▁banging	-11.2331
ble	-11.234
▁cot	-11.2344
▁planes	-11.2354
▁immaculately	-11.2357
▁stomach	-11.2373
▁2009	-11.2378
▁Trump	-11.2383
▁reputation	-11.2389
▁requesting	-11.2392
▁Kitchen	-11.2398
ate	-11.24
▁apologetic	-11.2408
▁doubles	-11.2408
▁stored	-11.2415
▁royalty	-11.242
▁granite	-11.242
▁significant	-11.2421
▁Pan	-11.2448
▁payment	-11.2448
da	-11.2452
▁understanding	-11.2456
▁refurbishment	-11.2464
both	-11.2468
▁speaks	-11.2469
▁$6	-11.247
▁ventilation	-11.247
had	-11.2471
▁3:00	-11.2472
▁delayed	-11.248
▁x	-11.2481
▁tho	-11.2482
▁r	-11.2482
▁expense	-11.2483
▁realised	-11.2486
▁venue	-11.2486
▁cat	-11.2495
▁contained	-11.2497
▁End	-11.25
▁confortable	-11.2502
▁Drive	-11.2503
▁upgrades	-11.2504
▁Luxor	-11.2509
▁Three	-11.2515
▁fight	-11.2515
▁dined	-11.2516
▁Sometimes	-11.2518
▁Long	-11.2518
▁Novotel	-11.2524
hot	-11.2536
▁scale	-11.254
▁Circular	-11.2546
staff	-11.2553
▁Book	-11.2557
▁Bell	-11.2569
▁searching	-11.2573
▁letting	-11.2576
▁Pretty	-11.2578
front	-11.258
▁visitor	-11.2584
▁dealing	-11.2587
▁shallow	-11.2591
▁belongings	-11.2593
▁pro	-11.2597
▁vaporetto	-11.26
year	-11.2604
lly	-11.2605
▁colleague	-11.2611
▁Marks	-11.2613
▁hell	-11.2626
▁Ca	-11.2635
▁DR	-11.2638
▁Canyon	-11.2638
around	-11.2648
▁‘	-11.2654
▁stain	-11.2664
▁David	-11.2677
▁memories	-11.268
▁Who	-11.2683
▁drank	-11.269
▁hr	-11.2695
screen	-11.2695
▁$35	-11.2699
US	-11.27
▁Space	-11.2701
▁chilly	-11.2702
▁select	-11.2704
▁cracked	-11.2708
▁sits	-11.2716
▁Angeles	-11.2722
▁claimed	-11.2727
▁pubs	-11.2728
▁Towers	-11.273
▁whom	-11.273
▁11:00	-11.2732
▁reply	-11.2735
▁luckily	-11.2745
▁outrageous	-11.2745
▁personable	-11.2749
▁signed	-11.2751
▁menus	-11.2762
▁́t	-11.2763
▁3-4	-11.2772
▁piano	-11.2777
▁apprehensive	-11.2786
▁drapes	-11.2787
▁underneath	-11.279
▁reality	-11.279
▁organised	-11.2792
▁platinum	-11.2793
▁$150	-11.2796
ey	-11.2797
▁description	-11.2802
40	-11.2804
▁fashion	-11.2805
▁allowing	-11.2811
▁ridiculously	-11.2812
€¦	-11.2812
▁Sophia	-11.2812
▁colors	-11.2818
conditioning	-11.2818
▁hangers	-11.2831
io	-11.2836
▁function	-11.2838
▁$60	-11.2848
▁Family	-11.2849
▁american	-11.2851
▁Latin	-11.2858
Breakfast	-11.286
▁300	-11.2863
▁ruin	-11.2866
▁support	-11.2867
▁quoted	-11.287
▁Management	-11.2871
▁san	-11.2872
▁appropriate	-11.2879
▁sirens	-11.2883
▁2006.	-11.2889
%	-11.2895
▁Modern	-11.2901
que	-11.2905
▁Conrad	-11.2907
▁appliances	-11.2908
▁overlook	-11.2912
▁challenge	-11.2913
▁Sofia	-11.2914
▁electrical	-11.2923
▁Pools	-11.2924
▁baked	-11.2925
▁forth	-11.2925
▁Firstly	-11.2926
▁blown	-11.2927
▁alright	-11.2934
▁4)	-11.2948
▁Those	-11.2957
▁bills	-11.2958
▁ammenities	-11.296
▁England	-11.296
▁offerings	-11.2964
▁Hyde	-11.2967
▁solo	-11.2971
▁Later	-11.2972
±	-11.2977
▁Nugget	-11.2977
▁oven	-11.2984
▁2006	-11.299
▁Main	-11.2992
▁rice	-11.2997
.50	-11.2997
▁staircase	-11.3
▁ultra	-11.3003
▁carpeting	-11.3009
▁staffed	-11.3014
▁Regency	-11.302
▁Sat	-11.302
▁gel	-11.3021
▁cleaners	-11.3021
▁des	-11.3022
▁opt	-11.3027
▁payed	-11.3028
▁secret	-11.304
▁queues	-11.3041
As	-11.3042
▁32	-11.3053
▁unhappy	-11.3063
▁boxes	-11.3069
▁houses	-11.3081
▁Hills	-11.3092
▁appealing	-11.31
▁pricing	-11.31
▁Republic	-11.31
▁marked	-11.3103
▁Gate	-11.3112
▁pair	-11.3112
▁destinations	-11.3118
▁zero	-11.312
▁Lunch	-11.3126
▁stands	-11.313
▁escorted	-11.3131
bo	-11.3139
▁oriented	-11.3142
▁blood	-11.3148
▁fashioned	-11.3152
▁albeit	-11.3155
?!	-11.3159
rooms	-11.3164
▁Whilst	-11.3167
▁fi	-11.3169
▁male	-11.3178
▁#	-11.3179
▁hubby	-11.3181
▁Terrace	-11.3184
▁efficiently	-11.3189
ana	-11.319
▁eight	-11.3192
▁dusty	-11.3192
▁useless	-11.3201
▁McDonalds	-11.3204
▁understood	-11.3207
▁Wednesday	-11.3208
▁joined	-11.3209
▁Bahia	-11.3214
▁concept	-11.3215
▁definite	-11.3216
▁Theatre	-11.3218
▁Actually	-11.3221
▁ft	-11.3224
▁Yucatan	-11.3224
▁Michael	-11.3225
▁pros	-11.3227
▁Fran	-11.3228
▁toaster	-11.323
▁opposed	-11.3231
▁teens	-11.3232
▁limo	-11.3251
▁Villas	-11.3252
J	-11.3254
ER	-11.326
▁spare	-11.3269
▁grateful	-11.3271
▁waking	-11.3272
town	-11.3279
▁goodness	-11.328
▁laugh	-11.3281
▁inches	-11.3282
▁separated	-11.3283
▁according	-11.3294
dryer	-11.3294
ig	-11.3295
▁arm	-11.3302
▁Security	-11.3303
▁tops	-11.3308
▁croissant	-11.3308
her	-11.331
▁Sun	-11.3311
▁Couldn	-11.3315
▁espresso	-11.3317
▁British	-11.332
15	-11.3321
▁weights	-11.3325
▁damage	-11.3327
▁supposedly	-11.3328
▁Fabulous	-11.3334
▁Unless	-11.3334
▁western	-11.3338
▁capacity	-11.3351
▁retreat	-11.3351
em	-11.3355
▁500	-11.3361
▁Palms	-11.3368
▁fittings	-11.3368
▁crib	-11.3371
▁ensuite	-11.3372
▁None	-11.3372
ring	-11.3384
▁partying	-11.3385
▁awkward	-11.3386
▁turtles	-11.3386
▁yelling	-11.3393
▁Hi	-11.3399
▁wearing	-11.34
When	-11.3401
▁york	-11.3406
▁SPG	-11.3406
▁General	-11.3417
▁regardless	-11.342
▁pampered	-11.3434
▁automatically	-11.3437
▁carrying	-11.3438
▁hurt	-11.3441
▁cupboard	-11.3443
▁reccommend	-11.3446
she	-11.3447
▁turndown	-11.345
ent	-11.3451
▁confused	-11.3452
▁hi	-11.3454
▁lead	-11.3456
▁surprising	-11.3459
▁conversations	-11.3461
▁restuarants	-11.3461
▁conditions	-11.3469
▁dip	-11.3473
▁Lastly	-11.3477
▁industry	-11.3478
▁loudly	-11.348
▁mirrors	-11.3482
men	-11.3483
▁approach	-11.3487
▁mark	-11.3488
▁closes	-11.3489
▁explanation	-11.3489
ber	-11.349
▁Towels	-11.3494
▁Honolulu	-11.3499
ex	-11.35
▁Out	-11.3505
▁ruins	-11.3507
▁amenity	-11.351
▁comped	-11.3513
▁10:00	-11.352
▁magical	-11.352
▁frankly	-11.3521
▁god	-11.3531
les	-11.3537
▁perks	-11.354
▁Saint	-11.3545
▁wherever	-11.355
▁groceries	-11.3555
▁waterfall	-11.3558
▁medium	-11.356
▁prepaid	-11.3563
▁lying	-11.3566
too	-11.3567
ke	-11.357
im	-11.3576
person	-11.3577
▁steal	-11.358
▁Better	-11.358
▁phoned	-11.3583
▁avoided	-11.3583
▁Basically	-11.3584
▁hurry	-11.3587
▁Standard	-11.3587
▁sauce	-11.3588
▁).	-11.3593
▁Turkey	-11.3597
▁Oahu	-11.3597
▁electronic	-11.3598
▁twenty	-11.3601
▁rome	-11.3606
▁dozen	-11.3607
▁somebody	-11.3615
▁pitch	-11.3617
▁depressing	-11.3618
▁strawberries	-11.3618
▁rainy	-11.3621
▁salt	-11.3622
▁5:30	-11.3629
etc	-11.3635
▁Doubletree	-11.3643
▁remind	-11.3653
▁visible	-11.3657
▁treatments	-11.3658
▁accommodated	-11.366
▁cabanas	-11.366
▁delay	-11.3662
0	-11.3663
▁consistent	-11.3669
▁respond	-11.3673
▁indicated	-11.3674
45	-11.3681
▁depends	-11.3683
▁load	-11.3683
So	-11.3696
▁plants	-11.3697
▁Walgreens	-11.37
▁Staying	-11.37
▁Gym	-11.37
▁2012	-11.37
pe	-11.3714
▁Flamingo	-11.3718
▁Sky	-11.3719
▁vent	-11.3721
▁wired	-11.3721
▁net	-11.3724
ge	-11.3726
▁inform	-11.3726
▁football	-11.3739
00	-11.3741
▁2009.	-11.3745
▁former	-11.3749
▁tacky	-11.375
▁Ferry	-11.3761
▁Dont	-11.3766
▁Capri	-11.3781
▁warn	-11.3781
▁transfers	-11.3787
▁Castle	-11.3789
again	-11.3791
▁Obviously	-11.3797
hrs	-11.3797
ah	-11.3804
j	-11.3806
▁sorts	-11.3808
▁holding	-11.3812
▁valuables	-11.3812
▁Bazaar	-11.3822
▁wheelchair	-11.3825
▁Considering	-11.3826
▁emergency	-11.3829
try	-11.3829
▁highlights	-11.3835
▁converted	-11.3844
▁isnt	-11.3845
▁PR	-11.3845
▁courts	-11.3849
LY	-11.3852
▁phenomenal	-11.3854
11	-11.3864
▁Okay	-11.3865
▁Remember	-11.3872
▁Regis	-11.3875
▁wander	-11.3875
▁Charles	-11.3876
▁Epcot	-11.3879
▁soaps	-11.3883
▁doctor	-11.3902
▁sausages	-11.3905
▁coke	-11.3908
▁Irish	-11.3911
▁Night	-11.3911
▁students	-11.3915
▁needing	-11.3932
▁stating	-11.3935
▁24/7	-11.3945
▁suprised	-11.3956
▁storm	-11.3958
▁crisp	-11.396
▁guaranteed	-11.396
▁mountain	-11.3965
▁potatoes	-11.3967
▁honor	-11.3977
▁BBQ	-11.3985
▁George	-11.3988
▁Man	-11.3991
▁42	-11.3992
▁friendliest	-11.3992
oh	-11.3993
▁ONE	-11.3995
▁Customer	-11.3997
▁75	-11.4004
▁sandy	-11.4004
ba	-11.4016
▁expedia	-11.4022
▁stopover	-11.4023
▁replacement	-11.4023
▁1.5	-11.4024
▁clerks	-11.4025
▁locate	-11.4025
▁condos	-11.4031
▁topless	-11.4036
sh	-11.4037
▁Hana	-11.4037
get	-11.4045
▁LV	-11.4045
▁Spring	-11.4047
▁Area	-11.405
▁persons	-11.4052
hi	-11.4056
▁Crowne	-11.4066
▁impressions	-11.4068
▁unbeatable	-11.4069
▁Raffles	-11.4077
▁reef	-11.408
▁registration	-11.408
▁receipt	-11.4083
▁sq	-11.4084
▁ignore	-11.4085
▁Train	-11.4094
▁win	-11.4095
...)	-11.4098
▁REALLY	-11.4099
▁rose	-11.4101
▁God	-11.4101
▁Tea	-11.4103
ise	-11.4105
▁magic	-11.4111
▁Double	-11.4114
▁RER	-11.4114
▁awhile	-11.4117
▁restuarant	-11.4117
▁chinese	-11.4118
son	-11.4123
▁Special	-11.4126
▁vs	-11.4127
▁attempted	-11.4134
▁vast	-11.4138
▁White	-11.4144
▁Experience	-11.4151
▁splurge	-11.4152
▁wallet	-11.4153
▁treats	-11.4159
▁Convenient	-11.416
car	-11.4162
▁Hagia	-11.4166
▁yoghurt	-11.417
▁praise	-11.417
▁receptionists	-11.4174
▁bustling	-11.4177
▁norm	-11.4179
Rooms	-11.418
▁hut	-11.4181
▁ends	-11.4185
▁countries	-11.4188
▁patrons	-11.4193
new	-11.4195
▁EVER	-11.4196
▁supervisor	-11.4199
▁active	-11.4205
▁Treasure	-11.4207
▁Extremely	-11.4211
▁adjust	-11.4214
ul	-11.4221
▁leaked	-11.4221
▁slamming	-11.4222
▁agency	-11.4226
▁expectation	-11.4228
▁shock	-11.4228
law	-11.423
di	-11.4237
▁keeps	-11.4238
▁zone	-11.4242
▁knocked	-11.4242
▁miserable	-11.4248
▁$14	-11.4248
▁acted	-11.4249
▁ancient	-11.425
▁elegance	-11.4252
▁showering	-11.4252
▁bathing	-11.4262
▁players	-11.4274
▁scenery	-11.4275
other	-11.4296
▁mad	-11.4302
▁designer	-11.4302
▁smelling	-11.4306
most	-11.4307
▁lets	-11.4309
▁catching	-11.4309
▁wild	-11.4309
▁shift	-11.4311
▁fortune	-11.4316
▁Jackson	-11.4323
▁Asia	-11.4324
▁Prince	-11.4329
▁walkways	-11.433
▁FOR	-11.4337
au	-11.4338
▁oatmeal	-11.4339
▁Complimentary	-11.4339
▁Unlike	-11.4347
▁connections	-11.4353
▁collect	-11.4356
▁suits	-11.4359
▁pics	-11.4361
▁skyline	-11.4362
▁humidity	-11.4373
▁BART	-11.4383
▁faster	-11.4391
▁addressed	-11.4392
▁courses	-11.4393
But	-11.4393
▁kick	-11.4394
On	-11.4397
▁Topkapi	-11.4407
▁minus	-11.4407
close	-11.4409
▁wines	-11.441
▁himself	-11.4412
▁mail	-11.4412
Great	-11.4418
▁record	-11.4422
▁proof	-11.4426
▁relief	-11.4426
▁Fremont	-11.4426
use	-11.443
▁instructions	-11.4432
▁neighboring	-11.4433
▁earth	-11.4436
▁LOCATION	-11.4438
▁reports	-11.4441
▁amongst	-11.4444
▁occasional	-11.4446
▁raining	-11.4448
▁rave	-11.4449
Very	-11.4449
▁lounging	-11.4453
▁Ibis	-11.4454
parking	-11.4464
▁hairs	-11.4467
▁Additionally	-11.4472
▁Without	-11.448
▁library	-11.448
week	-11.4481
▁european	-11.4487
▁Navy	-11.4492
▁laying	-11.4493
▁display	-11.4494
▁teeth	-11.4497
▁disaster	-11.4507
▁moldy	-11.451
▁BIG	-11.4519
▁recieved	-11.4524
▁wondering	-11.4525
▁soak	-11.4525
▁hurricane	-11.4532
▁isolated	-11.4538
▁doesnt	-11.4548
▁neighbours	-11.4551
▁diving	-11.4553
▁GO	-11.456
▁rubbish	-11.4561
▁Shangri	-11.4561
▁volume	-11.4565
▁hospitable	-11.4565
▁EUR	-11.4573
▁dealers	-11.4583
▁50%	-11.4585
▁Macy	-11.4588
▁sugar	-11.459
▁pushy	-11.4591
▁lodge	-11.4593
▁3.5	-11.4594
▁airconditioning	-11.4608
um	-11.4611
▁rollaway	-11.4616
▁Things	-11.4619
id	-11.462
▁moderate	-11.4625
▁celebration	-11.463
▁metal	-11.463
▁specially	-11.4633
▁pickup	-11.4634
▁basics	-11.4634
▁preference	-11.4634
▁politely	-11.4635
▁compensation	-11.4639
▁Ko	-11.4639
▁copy	-11.464
▁150	-11.4644
▁flower	-11.4644
▁2005.	-11.4651
▁mouth	-11.4652
▁tear	-11.4654
▁salmon	-11.4662
▁replied	-11.4666
▁printing	-11.4666
▁enclosed	-11.4666
park	-11.4667
▁carefully	-11.4668
▁poker	-11.467
©	-11.4674
▁adds	-11.4674
home	-11.4679
▁shutters	-11.4686
▁Decent	-11.4687
par	-11.4688
▁mosquitos	-11.4688
▁Caesar	-11.4689
▁landing	-11.4691
▁lol	-11.4694
▁sons	-11.4694
▁buck	-11.4695
▁Stanley	-11.4697
non	-11.4701
▁screens	-11.4705
▁background	-11.4705
▁catered	-11.4706
▁lacks	-11.4707
▁regards	-11.4711
▁Porto	-11.4717
▁Needle	-11.4717
▁grilled	-11.4719
▁tag	-11.4722
▁Public	-11.4729
▁links	-11.4734
▁LOVE	-11.4737
▁Cross	-11.4749
▁desert	-11.4753
▁4-5	-11.4757
ster	-11.4757
▁corners	-11.4762
▁Co	-11.4765
▁$9	-11.4766
▁page	-11.4768
▁apples	-11.4771
Food	-11.4772
▁feedback	-11.4776
▁error	-11.478
▁midtown	-11.4785
▁11:30	-11.4789
▁consideration	-11.4794
restaurants	-11.4796
▁Chelsea	-11.4796
▁OF	-11.4797
▁ha	-11.48
▁quirky	-11.48
▁trucks	-11.4801
▁promise	-11.4801
ence	-11.4802
▁Rocks	-11.4806
▁caring	-11.4807
▁Beverly	-11.4808
▁Imperial	-11.4812
▁unfortunate	-11.4814
▁overlooks	-11.4814
▁max	-11.4819
Staff	-11.4819
▁overbooked	-11.482
▁assortment	-11.482
▁treadmills	-11.4821
▁overwhelming	-11.4822
▁Germain	-11.4822
▁islands	-11.4826
ive	-11.4829
▁sensitive	-11.4832
▁coach	-11.4836
▁Kings	-11.4836
▁robe	-11.4839
▁55	-11.4843
▁Bath	-11.4844
▁effect	-11.4844
▁Maid	-11.4847
▁Sha	-11.4849
▁affect	-11.485
▁Marriot	-11.4855
▁Parisian	-11.4859
▁crash	-11.486
▁shortly	-11.4864
▁hosts	-11.4865
▁extreme	-11.4872
Intercontinental	-11.4872
▁Fresh	-11.4872
paid	-11.488
▁truck	-11.4884
▁tomorrow	-11.4888
▁stupid	-11.489
▁posh	-11.4892
▁extensively	-11.4892
▁endless	-11.4897
▁Fun	-11.4897
▁cabinet	-11.49
▁balance	-11.4901
▁effective	-11.4902
▁brings	-11.4906
▁2012.	-11.4907
▁Turn	-11.4908
ably	-11.4922
▁pots	-11.493
▁Tucan	-11.494
made	-11.4944
▁royal	-11.4946
▁WAS	-11.4949
▁Ku	-11.495
▁modest	-11.4951
▁hated	-11.4966
▁lined	-11.4966
▁Riverside	-11.4969
▁threw	-11.4972
▁flatscreen	-11.4978
▁X	-11.4978
▁prevent	-11.4981
▁controlled	-11.4985
▁gear	-11.4989
▁warmth	-11.4989
▁hostess	-11.4992
▁intend	-11.4995
▁memory	-11.4997
▁trick	-11.4997
▁operator	-11.4998
tion	-11.4998
▁Light	-11.5001
ice	-11.5006
▁pocket	-11.501
▁Someone	-11.5015
▁closets	-11.5023
▁biscuits	-11.5024
▁Nathan	-11.5025
▁Same	-11.5026
▁mould	-11.5027
▁mat	-11.503
▁assisted	-11.503
▁stopping	-11.5031
▁whose	-11.5035
One	-11.5044
▁$18	-11.5044
▁shades	-11.5046
▁worries	-11.5049
▁caution	-11.5049
▁slides	-11.5049
Ha	-11.5057
▁Spacious	-11.5058
▁ability	-11.5059
▁Near	-11.5059
50	-11.5062
▁swam	-11.5062
▁Sorry	-11.5068
▁assumed	-11.5069
ka	-11.5071
▁knocking	-11.5075
▁Ra	-11.5075
▁$$	-11.5076
▁PC	-11.5081
▁Vacations	-11.5081
▁Valentin	-11.5081
▁extend	-11.5089
▁extraordinary	-11.509
▁Honestly	-11.509
▁solution	-11.5093
lots	-11.5101
▁Rose	-11.5104
▁torn	-11.5105
▁Coco	-11.5112
▁basin	-11.5121
▁featured	-11.5128
▁pit	-11.5129
▁gifts	-11.5133
ible	-11.5136
▁9:00	-11.5136
▁ala	-11.5139
▁Based	-11.514
▁$16	-11.5142
▁controls	-11.5146
▁Seine	-11.5147
▁wandering	-11.5148
▁Thankfully	-11.5148
▁James	-11.5148
▁advertise	-11.5151
▁́s	-11.5153
nothing	-11.5156
▁Quality	-11.516
▁favorites	-11.5165
▁$80	-11.517
▁Duomo	-11.5172
▁CBD	-11.518
▁2004	-11.5184
▁WILL	-11.5185
▁leak	-11.5185
▁sadly	-11.5191
▁Du	-11.5197
ga	-11.5202
▁rushed	-11.5205
▁build	-11.5209
X	-11.5209
▁See	-11.5211
▁conclusion	-11.5213
▁snow	-11.5216
▁Level	-11.5218
light	-11.5231
▁perfection	-11.5233
▁esp	-11.5247
▁Checked	-11.5248
▁8:00	-11.5252
▁practice	-11.5253
▁Prices	-11.5255
▁Mon	-11.5256
▁desire	-11.5258
▁Worth	-11.5259
▁hence	-11.5263
▁yeah	-11.5264
▁benefits	-11.5265
▁catering	-11.5265
▁chilled	-11.5265
walk	-11.5265
▁tended	-11.5272
▁rules	-11.5273
▁Reef	-11.5276
▁barrier	-11.5283
▁bellmen	-11.5285
ized	-11.5286
ad	-11.5307
▁2005	-11.5313
▁Honeymoon	-11.5321
▁pace	-11.5328
▁undergoing	-11.5331
▁press	-11.5333
▁communication	-11.5333
▁pants	-11.5335
ina	-11.5335
wise	-11.5338
▁keen	-11.5339
▁queens	-11.5341
▁boards	-11.5341
▁explaining	-11.5344
▁coat	-11.5347
▁tiled	-11.5354
▁financial	-11.5357
▁remained	-11.5358
▁Aug	-11.5364
▁perk	-11.5371
▁Mini	-11.5374
▁network	-11.5376
▁tequila	-11.5376
▁ie	-11.5378
▁flow	-11.5379
▁primarily	-11.538
▁7:00	-11.5382
ak	-11.5384
▁shirt	-11.539
▁term	-11.539
▁Van	-11.5393
▁Parc	-11.5396
▁feed	-11.54
▁arrangement	-11.5401
For	-11.5402
▁residents	-11.5405
▁representative	-11.5405
▁limit	-11.5407
▁indifferent	-11.5407
how	-11.5413
ut	-11.5413
iness	-11.5416
▁knowledgable	-11.5418
▁decorations	-11.5421
▁Head	-11.5422
▁Canadian	-11.5431
▁anyways	-11.5437
▁frame	-11.5439
▁appeal	-11.544
▁granted	-11.544
▁father	-11.5444
▁Peter	-11.5449
▁crap	-11.5454
▁wasted	-11.5457
▁invited	-11.5459
▁leaking	-11.5464
▁SERVICE	-11.5465
▁ipod	-11.5466
▁crack	-11.5472
tercontinental	-11.5476
▁disturbing	-11.549
▁Aside	-11.5493
▁london	-11.5494
▁seedy	-11.5496
▁smoked	-11.5496
long	-11.5498
▁blame	-11.55
▁entertained	-11.5501
really	-11.5503
▁Animal	-11.5511
Not	-11.5516
▁combined	-11.5517
▁sale	-11.5519
▁readily	-11.5522
notch	-11.5529
▁themed	-11.553
▁housekeepers	-11.553
▁His	-11.5532
▁singing	-11.5535
▁reduced	-11.554
▁University	-11.5541
▁joy	-11.5543
▁Full	-11.5549
plus	-11.5554
@	-11.5554
▁ratings	-11.5554
▁medical	-11.5563
▁AWESOME	-11.5563
▁Placa	-11.5567
▁Days	-11.5568
▁smoky	-11.5576
▁structure	-11.5576
▁angry	-11.558
▁shady	-11.558
▁personality	-11.5582
▁dried	-11.5589
▁shoe	-11.5589
▁occasionally	-11.5592
▁Wireless	-11.5593
floor	-11.5596
▁law	-11.5597
▁Wing	-11.5599
▁Frank	-11.5602
▁jazz	-11.561
▁stadium	-11.5614
▁Thai	-11.5621
▁States	-11.5623
▁Hudson	-11.5636
▁bookings	-11.5638
▁Recently	-11.564
▁Looking	-11.5641
▁bear	-11.5642
▁floating	-11.5643
▁orders	-11.5644
▁pedestrian	-11.5645
▁Vista	-11.5653
▁hectic	-11.5654
▁---	-11.5661
▁pure	-11.5671
▁Penn	-11.5678
▁discounts	-11.5679
▁rise	-11.5689
ner	-11.5692
▁6:00	-11.5695
▁solved	-11.5701
▁requires	-11.5705
▁Bosphorus	-11.5705
▁lap	-11.5707
▁unwind	-11.5723
▁animal	-11.5724
med	-11.5725
▁waffle	-11.5728
▁restocked	-11.5733
▁grass	-11.5734
rate	-11.5735
▁Y	-11.5741
▁blew	-11.5744
▁starbucks	-11.5745
▁coral	-11.5745
▁HD	-11.5748
▁smokers	-11.5749
▁misleading	-11.5749
maintained	-11.5753
▁newspapers	-11.5758
▁gesture	-11.5759
▁asset	-11.576
12	-11.576
▁sidewalk	-11.5764
▁BE	-11.5764
▁fold	-11.5766
▁appetizer	-11.5768
▁oceanview	-11.5772
▁Un	-11.5774
▁CLEAN	-11.5779
▁Green	-11.578
▁fluent	-11.5781
bath	-11.5785
▁sooo	-11.5788
▁Condado	-11.5788
▁array	-11.5788
▁CD	-11.579
▁farther	-11.5791
‚¬	-11.5792
▁Almost	-11.5793
▁Superior	-11.5793
▁MUST	-11.5797
▁Tropical	-11.58
▁jets	-11.5801
▁clientele	-11.5801
▁mosquitoes	-11.5802
▁sleek	-11.5805
▁formal	-11.5806
▁mosquito	-11.5806
▁Bill	-11.5807
▁semi	-11.5812
▁(6	-11.5812
ci	-11.5813
▁recall	-11.5813
▁created	-11.5817
▁4:00	-11.582
▁ON	-11.5827
ac	-11.5827
▁Vdara	-11.5827
Bahn	-11.5832
▁•	-11.5832
▁leads	-11.5833
▁Spice	-11.5834
▁spoken	-11.5843
excellent	-11.5844
▁edges	-11.5845
▁pad	-11.5845
▁cuts	-11.5846
▁opera	-11.5848
▁satisfaction	-11.585
ham	-11.5852
seeing	-11.5853
▁4:30	-11.5854
ten	-11.5858
▁Noise	-11.5858
▁tricky	-11.5861
Do	-11.5861
▁Jose	-11.5866
▁voice	-11.5866
lounge	-11.5866
▁grabbed	-11.5868
!"	-11.5873
▁Ate	-11.5876
▁Helpful	-11.5877
▁Mission	-11.588
located	-11.5884
▁silly	-11.5885
▁afterwards	-11.5889
▁Seafood	-11.589
▁porch	-11.5897
And	-11.5901
▁mentioning	-11.5902
▁neighbor	-11.5915
▁arranging	-11.5916
▁hesitant	-11.5916
Ã	-11.5916
▁purposes	-11.5924
▁unprofessional	-11.5929
▁ships	-11.5934
▁accross	-11.5938
▁Called	-11.5939
▁cordial	-11.594
▁demand	-11.5947
booked	-11.595
▁Made	-11.5951
▁elderly	-11.5952
▁lodging	-11.5959
▁Aqua	-11.596
▁Pro	-11.5962
▁inquired	-11.5965
▁pricy	-11.5969
▁instance	-11.5981
▁Sports	-11.5984
ities	-11.5985
60	-11.5986
▁bellhop	-11.5991
▁tells	-11.5998
▁$75	-11.5999
stop	-11.6004
▁passport	-11.6005
▁48	-11.6007
Ä	-11.6009
▁Negatives	-11.6013
▁desperate	-11.6016
▁Triomphe	-11.6019
▁hub	-11.6019
▁HERE	-11.6027
▁dodgy	-11.6032
▁Chris	-11.6033
▁Soho	-11.6038
▁valets	-11.6044
▁$45	-11.6045
▁beachfront	-11.6045
▁positioned	-11.6049
▁iPod	-11.605
▁foam	-11.6052
▁Sq	-11.6059
▁thoughtful	-11.6062
▁thankfully	-11.6066
because	-11.6077
board	-11.6077
▁dolphins	-11.6084
▁lunches	-11.6085
▁yesterday	-11.6086
▁duration	-11.6091
▁lesson	-11.6091
▁wharf	-11.6095
▁thrown	-11.6096
▁foreign	-11.6099
▁version	-11.6104
▁vegetarian	-11.6112
▁burn	-11.6117
▁practical	-11.6119
▁log	-11.612
▁setup	-11.6122
▁ATM	-11.6123
▁claustrophobic	-11.6127
▁omelet	-11.6128
▁shouting	-11.6134
▁correctly	-11.6134
▁promotion	-11.6135
▁cleared	-11.6137
▁spoil	-11.6138
run	-11.6142
▁butler	-11.6142
ated	-11.6145
▁couches	-11.6154
ni	-11.6158
▁Powell	-11.6159
▁Alex	-11.6162
▁pipes	-11.6162
▁makeup	-11.6162
▁mobile	-11.6163
▁avail	-11.6164
▁pink	-11.6165
▁daytime	-11.6176
▁paris	-11.6181
▁jams	-11.6186
▁impersonal	-11.6186
▁unbelievably	-11.6186
▁create	-11.6188
▁pan	-11.6188
▁cancellation	-11.619
▁trek	-11.6192
▁downfall	-11.6193
mi	-11.6197
▁squeezed	-11.6197
▁scuba	-11.62
▁matters	-11.6204
▁communicate	-11.6211
80	-11.6211
▁height	-11.6211
▁mis	-11.6218
▁hills	-11.6222
▁Ma	-11.6224
▁cents	-11.6236
▁squeeze	-11.6243
▁necessarily	-11.6245
▁million	-11.6246
▁Watch	-11.6251
ue	-11.6252
▁thorough	-11.6252
.95	-11.6257
▁viewing	-11.6257
▁waters	-11.6258
▁caters	-11.6259
however	-11.6259
▁chipped	-11.6259
▁instant	-11.6262
would	-11.6263
▁sunrise	-11.6274
▁arcade	-11.6277
▁toddler	-11.6278
▁Tours	-11.6278
▁penthouse	-11.6282
▁Memorial	-11.6291
▁fishing	-11.6293
▁donuts	-11.6293
ery	-11.63
▁FOOD	-11.6301
full	-11.6304
▁se	-11.6307
▁infinity	-11.631
▁yard	-11.6314
▁Gare	-11.6319
▁tremendous	-11.6321
▁participate	-11.6321
▁occupancy	-11.6323
▁painting	-11.6329
▁Xel	-11.6329
▁EVERYTHING	-11.6342
▁DJ	-11.6342
▁sells	-11.6347
city	-11.6351
▁EXCELLENT	-11.6351
▁establishments	-11.6353
▁Wine	-11.6355
▁$13	-11.6355
▁Points	-11.6356
▁washroom	-11.6365
▁Deli	-11.6371
let	-11.6375
ize	-11.6376
▁Silver	-11.6379
▁transferred	-11.638
▁banana	-11.638
▁jobs	-11.6383
▁Premier	-11.6384
▁fake	-11.6394
▁Has	-11.6396
▁Monaco	-11.6398
▁cutlery	-11.6402
▁Terrible	-11.6407
▁signature	-11.6412
▁steaks	-11.6416
▁friendlier	-11.6417
▁heavily	-11.6421
▁omelets	-11.6422
▁crystal	-11.6426
▁diamond	-11.6426
ming	-11.6435
▁raised	-11.6436
▁vary	-11.6436
▁#2	-11.6439
▁Personally	-11.644
▁tank	-11.6443
▁Paul	-11.6445
▁Side	-11.6447
looking	-11.6449
▁Grounds	-11.645
sp	-11.6457
▁packages	-11.6458
▁Terminal	-11.6458
▁swing	-11.646
▁Roosevelt	-11.6463
▁economy	-11.6463
Also	-11.6464
▁concierges	-11.6465
probably	-11.6468
▁equiped	-11.6469
▁bells	-11.647
po	-11.6471
▁blowing	-11.6479
▁Di	-11.6482
▁answering	-11.6484
▁soooo	-11.6484
▁Carlos	-11.6485
▁cleanest	-11.6495
▁exposed	-11.6496
ck	-11.6497
▁candy	-11.6498
▁lousy	-11.6501
▁antique	-11.6503
▁spouse	-11.6505
▁MUCH	-11.6505
▁flooded	-11.6507
▁Ramada	-11.6513
▁realise	-11.6514
▁eve	-11.6515
▁flip	-11.6516
▁$70	-11.6517
▁redone	-11.6519
▁exquisite	-11.6522
▁collection	-11.6525
▁Myself	-11.653
▁10%	-11.6531
▁CNN	-11.6534
▁Break	-11.6535
▁Checking	-11.6538
▁bidet	-11.6539
▁operate	-11.6539
▁drops	-11.654
▁y	-11.654
▁unbearable	-11.6543
▁Lo	-11.6554
▁lowest	-11.656
▁rid	-11.6562
▁excessive	-11.6574
▁exclusive	-11.6574
▁camp	-11.6578
▁GOOD	-11.6581
▁regard	-11.6585
▁neck	-11.6587
▁Wish	-11.6599
▁36	-11.6604
▁timely	-11.6611
IN	-11.6617
▁truth	-11.6617
▁faucet	-11.6621
▁Boulevard	-11.6624
▁worthwhile	-11.6626
port	-11.6627
ee	-11.6631
Check	-11.6634
9.00	-11.6634
▁nine	-11.6634
near	-11.6635
▁overhead	-11.6639
▁posts	-11.664
ny	-11.6641
........	-11.6643
▁Fitness	-11.6643
Beach	-11.6644
standard	-11.6648
-10	-11.6649
▁fear	-11.6655
▁slippery	-11.6662
▁f	-11.6668
▁rule	-11.667
▁basketball	-11.6672
▁Magnificent	-11.6672
▁Fish	-11.6673
▁slip	-11.6676
▁Desert	-11.6676
▁;	-11.6683
▁Orange	-11.6685
▁outdoors	-11.669
▁Dining	-11.6701
▁Generally	-11.6703
▁hasn	-11.6708
▁kidding	-11.671
▁apparent	-11.6712
▁Save	-11.6713
▁professionalism	-11.6715
▁eater	-11.6716
wood	-11.6729
▁THAT	-11.6729
▁las	-11.6729
▁stuffed	-11.6733
▁Affinia	-11.6734
▁Seriously	-11.6739
▁specials	-11.6741
▁Anniversary	-11.6743
▁anticipated	-11.6746
▁refunded	-11.6748
big	-11.6751
▁becomes	-11.6752
▁PH	-11.6755
▁24-	-11.6757
▁borrow	-11.6759
?).	-11.6761
▁thumbs	-11.6762
▁silver	-11.6763
ped	-11.6765
▁dates	-11.677
▁feather	-11.6774
▁cottage	-11.6776
▁Bistro	-11.6777
▁kit	-11.6783
▁surface	-11.6786
▁chatting	-11.6787
net	-11.6791
▁h	-11.6794
▁consists	-11.6797
▁Hacienda	-11.681
▁Cosmopolitan	-11.6811
▁sucked	-11.6813
▁struggle	-11.6814
▁tvs	-11.6816
▁mounted	-11.6818
▁loaded	-11.6821
ned	-11.6822
▁internal	-11.6824
▁Robson	-11.6835
▁overwhelmed	-11.6836
▁noticeable	-11.6844
▁Taxis	-11.6852
book	-11.6853
▁Mary	-11.6855
▁classes	-11.6855
▁piazza	-11.6855
▁brush	-11.6857
▁skeptical	-11.686
▁rely	-11.6865
▁mosque	-11.6869
▁random	-11.6873
pi	-11.6874
▁5:00	-11.6877
▁Trastevere	-11.6879
▁competent	-11.688
▁nuts	-11.6885
class	-11.6889
▁gaming	-11.689
▁languages	-11.6892
▁remodeling	-11.6892
▁obnoxious	-11.6894
▁(7	-11.6897
▁India	-11.6899
▁gay	-11.6901
▁Fashion	-11.6904
▁39	-11.6923
▁understaffed	-11.6924
sorry	-11.6924
▁thier	-11.6929
▁Anne	-11.6932
▁PS	-11.6933
▁Taksim	-11.6938
▁Recommend	-11.694
desk	-11.6941
▁compensate	-11.6946
▁Sands	-11.6947
▁cardio	-11.695
▁relative	-11.695
!!!!!!	-11.6952
▁cappuccino	-11.6953
▁confusion	-11.6953
▁Chef	-11.6956
▁resolve	-11.6956
▁loft	-11.6958
▁Across	-11.6964
▁tech	-11.6966
▁spotty	-11.6966
▁shaded	-11.6968
▁pork	-11.6968
▁sometime	-11.6971
▁essentially	-11.6975
▁websites	-11.698
▁commercial	-11.6983
▁tries	-11.6983
▁wrap	-11.6992
▁Navona	-11.6997
▁finest	-11.6997
tic	-11.6999
▁annual	-11.7
▁$500	-11.7004
▁official	-11.7006
▁animation	-11.7007
spa	-11.7008
▁Her	-11.7012
▁cloths	-11.7012
RE	-11.7015
▁century	-11.7018
▁Cheap	-11.7022
▁salsa	-11.7022
▁instantly	-11.7025
▁dinning	-11.7032
▁requirements	-11.7036
ating	-11.7041
▁ANY	-11.7041
▁detailed	-11.7042
something	-11.7043
op	-11.7045
▁hide	-11.7046
▁Worst	-11.7047
▁rentals	-11.7052
▁aquarium	-11.7052
▁Tiki	-11.7052
▁hotwire	-11.7053
▁settle	-11.7061
▁accident	-11.7066
▁Burger	-11.7067
▁hook	-11.7068
▁contrast	-11.7077
▁Ro	-11.7078
ical	-11.7081
tub	-11.7081
▁leather	-11.7082
hop	-11.7084
▁33	-11.7089
take	-11.709
▁waterfalls	-11.7092
▁buzz	-11.7092
▁watered	-11.7092
eg	-11.7095
bahn	-11.7097
▁dull	-11.7097
▁Palm	-11.7102
▁Clarke	-11.7104
▁bands	-11.7104
,000	-11.7105
▁adding	-11.7109
▁Denny	-11.7112
▁aerobics	-11.7114
▁combo	-11.7114
▁Swissotel	-11.7122
club	-11.7131
▁sunscreen	-11.7133
▁Boardwalk	-11.7137
ti	-11.7138
▁lasted	-11.7138
▁cookie	-11.7139
▁handicapped	-11.7142
▁companies	-11.7147
▁equal	-11.7147
ze	-11.7147
▁Five	-11.7149
type	-11.7152
▁Honors	-11.7154
▁Am	-11.7158
▁Poor	-11.7158
▁scam	-11.7159
▁3:30	-11.7162
▁notes	-11.7162
▁dad	-11.7168
▁wondered	-11.7169
▁spite	-11.7174
▁Usually	-11.7177
▁scent	-11.7179
▁backwards	-11.7181
make	-11.7181
▁Inner	-11.7189
▁touched	-11.7189
▁pristine	-11.7192
▁inter	-11.7197
▁title	-11.7202
▁landed	-11.7214
▁flavor	-11.7215
.00	-11.7216
▁Speaking	-11.7218
:00	-11.7222
▁sample	-11.7222
▁insulated	-11.7223
▁marvelous	-11.7233
▁Whaler	-11.7234
▁LOT	-11.7235
▁laughing	-11.7235
ver	-11.7236
▁perspective	-11.7238
▁Flat	-11.724
▁goodies	-11.7245
▁drug	-11.7249
▁apologize	-11.7251
▁Cathedral	-11.7253
▁pleasing	-11.7254
▁Birthday	-11.7258
▁bridges	-11.7261
▁$400	-11.7263
▁pressed	-11.7263
▁vegetables	-11.727
▁substantial	-11.7271
▁Grande	-11.7275
▁competition	-11.7278
▁focus	-11.7279
▁Short	-11.7281
▁Must	-11.7286
▁race	-11.729
▁cartes	-11.7296
▁notified	-11.7297
▁freindly	-11.7299
▁souvenirs	-11.7302
▁restful	-11.7303
▁Homewood	-11.7304
Good	-11.7304
▁sodas	-11.7305
▁pond	-11.7311
▁Access	-11.7314
▁Seaworld	-11.7314
▁crab	-11.7315
▁Madison	-11.7324
▁abundance	-11.7329
▁3*	-11.733
▁crawling	-11.7331
▁coffe	-11.7333
ward	-11.7334
ations	-11.7334
▁landscaped	-11.7339
▁repeatedly	-11.7346
▁pride	-11.735
▁dime	-11.7353
▁laughed	-11.7355
▁argue	-11.7356
▁skin	-11.7358
▁$11	-11.7365
▁Paddington	-11.737
▁Decor	-11.7374
▁Select	-11.738
▁Jr	-11.7383
▁diet	-11.7386
▁ceremony	-11.7391
▁Felt	-11.7396
▁duck	-11.7398
▁fo	-11.7399
ages	-11.74
▁related	-11.7404
▁yoga	-11.7406
▁fed	-11.742
▁Rd	-11.742
▁conceirge	-11.7422
▁geared	-11.7431
▁quicker	-11.7433
lit	-11.7435
▁beforehand	-11.7437
▁urine	-11.7437
▁Eaton	-11.7438
▁g	-11.7444
▁repaired	-11.7445
▁loo	-11.7448
▁5)	-11.7449
▁frig	-11.7449
▁remaining	-11.7451
▁bedspread	-11.7452
▁Midtown	-11.7453
▁false	-11.7453
▁surly	-11.7454
▁gap	-11.7456
ded	-11.7458
▁dedicated	-11.7458
▁Compare	-11.7458
▁Come	-11.7459
▁Granted	-11.7462
▁baseball	-11.7463
▁Safe	-11.7465
unless	-11.7465
▁(20	-11.7469
▁Wall	-11.747
▁Sam	-11.7476
▁girlfriends	-11.7478
▁overcrowded	-11.748
▁smack	-11.7484
▁Fine	-11.7484
▁fooled	-11.7486
▁GM	-11.7487
▁skills	-11.749
▁serene	-11.7499
▁Jazz	-11.7499
▁Outside	-11.75
che	-11.75
double	-11.75
za	-11.7502
▁Circle	-11.7505
▁playa	-11.751
ins	-11.7511
▁rudely	-11.7512
▁hamburgers	-11.7518
▁Hop	-11.7523
▁booth	-11.7527
▁Therefore	-11.7528
▁Oxford	-11.7531
high	-11.7532
▁National	-11.7539
▁Shops	-11.7539
▁trail	-11.7541
▁Po	-11.7543
▁competitive	-11.7544
▁400	-11.7546
▁popcorn	-11.7546
▁scenic	-11.7546
▁Ponte	-11.7547
everything	-11.7547
▁colour	-11.7549
▁BEACH	-11.7558
▁blind	-11.7559
existent	-11.7561
▁membership	-11.7568
▁DON	-11.757
▁guides	-11.7575
▁Recommended	-11.7576
▁WAY	-11.7579
▁panoramic	-11.7583
▁electricity	-11.7588
▁urban	-11.7589
ding	-11.7591
▁buffett	-11.7597
▁Mike	-11.7597
▁replacing	-11.7598
▁Principe	-11.7598
▁installed	-11.76
▁crappy	-11.7604
▁tone	-11.7606
▁supermarkets	-11.7607
▁0	-11.7607
▁significantly	-11.7608
.5	-11.7615
▁busses	-11.7617
-5	-11.7618
▁Tree	-11.7618
▁impeccably	-11.7619
▁cheesy	-11.762
mon	-11.7624
▁climate	-11.7625
▁dancers	-11.7625
▁HOT	-11.7627
▁le	-11.7629
▁wildlife	-11.7646
▁grade	-11.7647
▁CA	-11.765
▁34	-11.7651
▁Kapalua	-11.7651
▁automatic	-11.7672
▁amsterdam	-11.7673
▁shaped	-11.7674
▁Walmart	-11.7678
To	-11.768
▁Tram	-11.7681
are	-11.7682
▁Copley	-11.7683
dy	-11.7683
▁Washington	-11.7688
▁beans	-11.7689
▁(2)	-11.7691
▁restaraunts	-11.7698
▁irritating	-11.7699
▁shelves	-11.7699
▁someplace	-11.7704
▁sticky	-11.7704
▁accessed	-11.7709
equipped	-11.771
▁clue	-11.7714
▁float	-11.7719
▁candles	-11.7721
▁smokey	-11.7725
▁Lido	-11.7726
▁Use	-11.7729
ign	-11.7729
▁lumpy	-11.7731
▁Turtle	-11.7736
▁ending	-11.7742
cu	-11.7748
▁shall	-11.7749
▁remarkable	-11.7752
▁searched	-11.7754
▁exist	-11.7758
▁Lu	-11.7759
▁coconut	-11.7762
▁$22	-11.7762
▁vibrant	-11.7763
▁community	-11.7763
Would	-11.7764
best	-11.7765
▁Delta	-11.7774
▁billed	-11.7774
▁supper	-11.7774
▁client	-11.7776
▁ABC	-11.778
▁hitting	-11.7781
ping	-11.7786
▁cubicle	-11.7789
▁flash	-11.7789
▁attempts	-11.7789
▁Anyone	-11.7796
▁deco	-11.7796
▁downhill	-11.7797
▁horror	-11.78
▁playground	-11.7802
▁pharmacy	-11.7806
▁alternatives	-11.7809
▁frustrated	-11.7811
▁tranquil	-11.7816
▁palapas	-11.7816
▁intrusive	-11.7817
▁corrected	-11.7825
▁toys	-11.7827
▁Monica	-11.7827
dinner	-11.7828
ol	-11.7829
fast	-11.7834
▁bid	-11.7835
▁dozens	-11.7837
▁Luxembourg	-11.7838
▁Golf	-11.7838
▁wishing	-11.7839
▁(15	-11.7844
▁soundproofing	-11.7846
▁venues	-11.7848
▁accomodated	-11.7851
▁Studio	-11.7854
▁bedbugs	-11.7855
▁disabled	-11.7859
▁bowling	-11.7867
train	-11.7867
▁Husband	-11.787
▁remain	-11.7874
▁refill	-11.7878
▁guided	-11.7882
▁sunbeds	-11.7901
▁springs	-11.7902
▁Cruise	-11.7903
▁$250	-11.7903
▁sofas	-11.7908
▁socks	-11.7915
▁dial	-11.7916
▁2:00	-11.792
▁fits	-11.7922
▁Positives	-11.7922
▁glazing	-11.7924
▁fax	-11.7931
▁1000	-11.7933
▁sending	-11.7936
▁topped	-11.7938
cho	-11.7941
▁Home	-11.7946
▁motels	-11.7946
▁venice	-11.7946
▁EVERY	-11.7946
▁booze	-11.7946
▁downsides	-11.7952
▁;)	-11.7958
▁latest	-11.7959
▁teh	-11.7966
▁2:30	-11.7968
▁Murano	-11.7978
▁Aladdin	-11.7984
▁cent	-11.7985
▁encourage	-11.7988
=	-11.799
▁2004.	-11.7991
▁bunk	-11.7992
▁remainder	-11.7995
▁Mediterranean	-11.7995
▁sketchy	-11.7995
▁oil	-11.7996
▁surprises	-11.7997
ru	-11.7998
▁Used	-11.8011
▁FANTASTIC	-11.8011
ard	-11.8012
▁Europeans	-11.8016
▁Simply	-11.8022
▁worthy	-11.8032
▁FYI	-11.8034
▁statement	-11.8035
▁dorm	-11.8037
25	-11.8038
▁Rockefeller	-11.8039
▁cloth	-11.8046
▁grace	-11.8047
ya	-11.8049
▁Prado	-11.805
▁southern	-11.8055
ning	-11.8058
▁blackjack	-11.8061
special	-11.8062
▁grown	-11.8065
▁BBC	-11.8067
▁THe	-11.8067
never	-11.8076
▁MO	-11.8077
▁ID	-11.808
cor	-11.8081
ask	-11.8086
▁Barcelo	-11.8088
▁bench	-11.8094
ised	-11.8095
bathroom	-11.8097
▁hired	-11.8097
Don	-11.81
minutes	-11.8102
/11	-11.8103
▁canals	-11.8104
▁smiled	-11.8105
▁Certainly	-11.8111
▁restaraunt	-11.8111
walking	-11.8116
▁claims	-11.8122
▁nickel	-11.8124
▁kill	-11.8125
▁Charlie	-11.8127
▁cigarettes	-11.8129
▁film	-11.8129
▁Luna	-11.8133
▁kindness	-11.8133
▁Common	-11.8134
▁Asked	-11.8134
▁1:00	-11.8137
▁justice	-11.8137
▁comparing	-11.8139
▁2.5	-11.8141
ay	-11.8145
▁latter	-11.8145
▁dropping	-11.8151
▁flawless	-11.8152
)...	-11.8158
ps	-11.8159
▁unforgettable	-11.816
▁dvd	-11.816
▁BAD	-11.8161
▁asian	-11.8162
street	-11.8163
▁puts	-11.8165
▁televisions	-11.8165
▁industrial	-11.8166
ler	-11.8166
then	-11.8166
▁growing	-11.8167
▁renovating	-11.8171
▁mo	-11.8174
▁Roof	-11.8177
▁yrs	-11.8178
▁Eventually	-11.8182
▁Steve	-11.8187
did	-11.8194
AL	-11.8195
▁surfing	-11.8196
rated	-11.8205
Location	-11.8206
▁noisey	-11.8206
stay	-11.8209
▁$17	-11.8214
▁Chancellor	-11.8216
▁Da	-11.8218
▁Such	-11.8222
▁wee	-11.8232
pa	-11.8236
▁reviewed	-11.8237
▁Stratosphere	-11.8238
▁demanded	-11.8243
▁unsure	-11.8244
▁Far	-11.8245
pp	-11.8247
▁Rick	-11.8248
▁Marie	-11.825
▁20-30	-11.8251
▁Na	-11.8252
▁trays	-11.8254
▁researched	-11.8254
▁intended	-11.8255
▁horse	-11.8264
thank	-11.8265
Z	-11.8265
▁Pub	-11.8266
▁Hopefully	-11.8266
▁Wedding	-11.8272
▁jumping	-11.8275
▁finger	-11.8276
▁mega	-11.8278
▁pleasent	-11.8279
▁dreadful	-11.8279
va	-11.8279
▁Borghese	-11.8283
▁lane	-11.8287
▁sharp	-11.8289
▁rolled	-11.8292
▁speedy	-11.8294
▁PERFECT	-11.8294
included	-11.8295
▁meter	-11.8296
didn	-11.8296
▁climbing	-11.8298
tel	-11.83
▁Card	-11.83
▁1:30	-11.83
▁1-	-11.8305
family	-11.8307
.99	-11.8311
▁operated	-11.8315
▁shirts	-11.8315
▁Yet	-11.8319
▁IF	-11.8319
▁cooling	-11.8326
ries	-11.8331
key	-11.8332
▁ferries	-11.8334
▁rode	-11.8336
▁Music	-11.8337
▁Occidental	-11.8339
▁sunshine	-11.834
▁Something	-11.8346
▁Tube	-11.835
▁excellant	-11.8351
▁tan	-11.8351
▁flag	-11.8351
▁wore	-11.8355
▁receiving	-11.8362
▁responsible	-11.8362
▁Shop	-11.8365
▁roller	-11.8368
▁hilton	-11.8368
▁social	-11.8374
▁twins	-11.8374
What	-11.8375
▁Venezia	-11.8379
quiet	-11.838
▁Resorts	-11.8386
▁abundant	-11.839
▁adequately	-11.8399
▁cultural	-11.8402
▁harder	-11.8402
▁Shore	-11.8406
▁hint	-11.8406
▁covering	-11.8407
▁test	-11.8409
▁Elevators	-11.8413
stocked	-11.8414
▁comforts	-11.8422
▁Quinta	-11.8425
▁march	-11.8429
▁secured	-11.843
▁presence	-11.843
▁crossing	-11.8439
▁termini	-11.8442
▁burned	-11.8446
▁prove	-11.8452
ja	-11.8454
▁Ice	-11.8457
▁mum	-11.846
▁scheme	-11.8465
▁paths	-11.8465
▁factory	-11.8468
▁Fair	-11.8469
uff	-11.8471
▁engineer	-11.8479
▁economical	-11.8484
▁link	-11.8485
▁cotton	-11.8488
▁Quick	-11.8488
▁monkeys	-11.849
clock	-11.8492
▁Read	-11.8492
▁Nevertheless	-11.8493
▁sunsets	-11.8495
▁guards	-11.8503
▁Vi	-11.851
▁Angel	-11.851
▁jumped	-11.8513
mini	-11.8519
▁insulation	-11.8522
▁brochure	-11.8526
▁partially	-11.853
▁arrogant	-11.8533
▁efficiency	-11.8534
kept	-11.8535
▁distant	-11.854
▁Theater	-11.8541
▁Superb	-11.8545
www	-11.855
▁circumstances	-11.8554
▁convinced	-11.8554
▁speakers	-11.8558
▁remodel	-11.856
▁Cirque	-11.8563
▁Truly	-11.8563
large	-11.857
▁Ala	-11.857
▁unpack	-11.8574
▁pans	-11.8574
▁Carribean	-11.858
▁teas	-11.8584
▁Aquarium	-11.8586
▁ARE	-11.8587
▁enjoyment	-11.8588
▁bulbs	-11.8594
▁Neither	-11.8603
▁sophisticated	-11.8609
▁password	-11.8609
mb	-11.8612
▁Dr	-11.8614
▁rewards	-11.8617
▁locker	-11.8617
ied	-11.862
▁minimalist	-11.863
-4	-11.8631
▁definetely	-11.8644
▁definitly	-11.8644
much	-11.865
70	-11.8651
▁NOLA	-11.8651
▁passengers	-11.8651
▁showered	-11.8654
▁inconsistent	-11.8655
▁chaos	-11.8655
▁20%	-11.8659
▁human	-11.867
si	-11.8673
▁restroom	-11.8675
▁bitten	-11.8676
▁detergent	-11.8679
yr	-11.8692
▁cutting	-11.8698
ino	-11.8699
▁Peninsula	-11.8702
speed	-11.8704
vi	-11.8705
▁lo	-11.8706
▁hammocks	-11.8713
ap	-11.8713
▁repeated	-11.8714
think	-11.8715
▁Astoria	-11.8716
▁evident	-11.8717
▁el	-11.8723
▁equivalent	-11.8726
▁content	-11.8733
▁passports	-11.8733
▁essential	-11.8735
have	-11.8735
Oh	-11.8737
ks	-11.8743
▁apologies	-11.8743
▁Sadly	-11.875
▁finishing	-11.8756
modern	-11.8756
▁sewage	-11.8761
▁freshen	-11.8762
▁bakeries	-11.8767
▁Kensington	-11.8767
▁Around	-11.8771
▁slowly	-11.8771
ria	-11.8772
ep	-11.8774
▁considerably	-11.8774
▁celebrated	-11.878
▁solve	-11.8784
▁Disneyland	-11.8788
5.00	-11.8793
▁bird	-11.8796
▁festival	-11.8796
▁skipped	-11.8797
▁snorkelling	-11.8797
▁pretentious	-11.8803
▁tacos	-11.8804
▁refilled	-11.8807
▁Millenium	-11.8808
▁characters	-11.8812
▁arguing	-11.8814
▁Aloha	-11.8815
iest	-11.8817
▁Guests	-11.8819
Re	-11.8825
ties	-11.8825
▁(8	-11.8826
▁12:30	-11.8826
▁oversized	-11.8832
▁werent	-11.8835
▁improvements	-11.8837
▁brands	-11.8841
NO	-11.8846
bu	-11.8849
▁operation	-11.8854
90	-11.8855
▁agents	-11.8857
ug	-11.8857
▁inadequate	-11.886
▁whales	-11.8861
▁resulted	-11.8863
▁ya	-11.8864
▁ventured	-11.8866
▁lawn	-11.8866
▁forest	-11.8866
▁favour	-11.8867
▁JFK	-11.8868
▁assistant	-11.8871
▁moments	-11.8872
▁leisurely	-11.8875
OR	-11.8878
▁wings	-11.8878
▁Se	-11.8879
▁stones	-11.8879
▁da	-11.888
▁bagel	-11.8889
▁Daniel	-11.8892
▁Bo	-11.89
▁sweat	-11.8902
▁AI	-11.8903
▁Viva	-11.8905
▁maintain	-11.8906
▁su	-11.8909
▁deciding	-11.8909
▁porters	-11.8928
▁Dirty	-11.8928
Be	-11.8932
▁toothbrush	-11.8933
▁pets	-11.8942
▁lifetime	-11.8942
▁ROOMS	-11.8942
ily	-11.8944
▁Isla	-11.8946
mar	-11.8951
euro	-11.8951
▁Cleanliness	-11.8952
▁listened	-11.8953
▁vacuumed	-11.8955
ever	-11.8955
▁insurance	-11.8957
▁Eden	-11.8957
▁luau	-11.8958
location	-11.8959
▁heck	-11.896
▁拢	-11.8964
▁costly	-11.8965
▁TIP	-11.8966
▁omelettes	-11.8967
▁advertising	-11.8969
▁cockroaches	-11.897
▁Gras	-11.8975
▁fifteen	-11.8976
▁grey	-11.8977
lu	-11.898
ite	-11.8982
▁:(	-11.8984
▁bistro	-11.8989
▁suffer	-11.8993
▁CVS	-11.8994
▁ect	-11.8994
▁seeking	-11.8994
▁annoyance	-11.8994
▁student	-11.9001
▁nachos	-11.9002
▁HAVE	-11.9008
▁roughly	-11.901
▁strike	-11.9013
▁resident	-11.9013
▁showerhead	-11.9019
▁impress	-11.9025
▁Bank	-11.9026
▁Pa	-11.9026
▁colorful	-11.903
▁efforts	-11.9034
▁SD	-11.9038
called	-11.904
▁mouse	-11.9042
bars	-11.9045
▁sections	-11.9047
▁Inns	-11.905
▁departing	-11.9051
without	-11.9053
▁trap	-11.9055
▁creepy	-11.9055
▁True	-11.9058
conditioned	-11.906
▁purse	-11.9061
Carlton	-11.9062
▁Kind	-11.9064
next	-11.9065
▁Secondly	-11.9067
▁afternoons	-11.9067
▁Pay	-11.9069
▁Japan	-11.9073
▁Ta	-11.9073
▁success	-11.9076
▁**	-11.9082
▁safely	-11.9086
▁insist	-11.9087
▁maze	-11.9091
▁nonetheless	-11.9097
▁shortage	-11.9098
▁Down	-11.9107
▁roaches	-11.911
mer	-11.9114
▁Paid	-11.9116
▁nose	-11.912
▁theatres	-11.9126
▁excitement	-11.9127
▁pineapple	-11.9128
▁cockroach	-11.9133
▁alive	-11.9133
▁artwork	-11.9153
q	-11.9153
▁Polo	-11.9154
▁remains	-11.9158
▁worker	-11.916
/10	-11.9161
▁temperatures	-11.9164
▁pulling	-11.9164
ger	-11.9164
▁raise	-11.9164
▁Going	-11.9167
▁Olympic	-11.9171
first	-11.9172
▁Louis	-11.9181
▁waterpark	-11.9182
▁splendid	-11.9183
▁Amenities	-11.9183
▁rowdy	-11.9183
der	-11.9185
▁mar	-11.919
▁Pe	-11.9192
head	-11.9193
▁death	-11.9195
▁stiff	-11.9195
▁gated	-11.9198
▁chaise	-11.9203
▁rank	-11.9204
ys	-11.9205
▁petals	-11.9206
▁suddenly	-11.9208
▁sprayed	-11.9208
cruise	-11.9209
▁jewelry	-11.9213
▁65	-11.9215
▁gentlemen	-11.9215
://	-11.9216
▁NH	-11.9219
▁Joe	-11.9222
▁wary	-11.9223
▁lounger	-11.9223
▁Expensive	-11.9226
ened	-11.9228
▁sour	-11.9228
▁tape	-11.9229
▁slice	-11.924
▁omelette	-11.9243
▁Labor	-11.9245
▁reserving	-11.9257
fresh	-11.9259
▁cave	-11.9266
▁Mac	-11.9269
▁Luxury	-11.9269
perfect	-11.9271
▁Airlines	-11.9272
▁babies	-11.9275
▁Weekend	-11.9276
▁HI	-11.9278
▁manicured	-11.9279
▁associated	-11.9279
▁ranging	-11.9279
▁fro	-11.9281
▁retrieve	-11.9281
▁HIGHLY	-11.9282
▁comforters	-11.9285
ini	-11.9288
▁forum	-11.929
▁balls	-11.9292
▁Fi	-11.9293
▁Choice	-11.9294
▁Bedroom	-11.9297
▁honored	-11.93
▁Country	-11.9306
▁native	-11.9307
▁device	-11.9309
▁haul	-11.9309
▁packing	-11.9311
▁70'	-11.9312
▁OR	-11.9316
▁Veneto	-11.9319
▁Lobster	-11.9319
drinks	-11.9321
quality	-11.9324
tro	-11.9325
▁OC	-11.933
▁flies	-11.9332
▁grout	-11.9335
▁toothpaste	-11.9344
ocean	-11.9345
level	-11.9346
▁ac	-11.9349
▁Gracia	-11.935
▁armoire	-11.9351
▁Booking	-11.9351
▁Wouldn	-11.9354
▁Tu	-11.9355
▁Way	-11.936
▁Grant	-11.936
▁Third	-11.9361
▁damaged	-11.9363
▁premier	-11.9369
▁Store	-11.9376
▁Basic	-11.9379
▁connects	-11.9383
▁YOUR	-11.9388
▁honey	-11.9388
business	-11.939
▁ur	-11.9396
ho	-11.9396
▁Itza	-11.9399
▁grubby	-11.94
▁souvenir	-11.9402
ious	-11.9407
▁slam	-11.9408
▁Diner	-11.9413
▁tourism	-11.9414
▁Hooters	-11.9418
▁Aveda	-11.942
▁refuse	-11.9425
▁chip	-11.9425
▁repairs	-11.9428
▁wheel	-11.9429
▁valuable	-11.9429
▁Palomar	-11.9432
▁tiring	-11.9432
▁Average	-11.9432
▁seek	-11.9432
35	-11.9438
▁Columbus	-11.9438
▁BTW	-11.9439
▁Tried	-11.944
▁honeymooners	-11.944
▁rolling	-11.9443
:)	-11.9446
cold	-11.9454
▁entertain	-11.9454
▁sparse	-11.9455
▁Seems	-11.9457
▁appointment	-11.9461
gan	-11.9463
▁Gorgeous	-11.9463
▁needless	-11.9465
▁horrendous	-11.9467
▁expansive	-11.947
▁Are	-11.9471
▁disappeared	-11.9471
▁80'	-11.9473
▁Elysees	-11.9478
▁NOTHING	-11.9482
▁caliber	-11.9482
▁golden	-11.9484
▁WONDERFUL	-11.9489
▁STAFF	-11.9489
▁Germany	-11.9493
▁moderately	-11.9499
▁yogurts	-11.9501
▁Either	-11.9508
▁plays	-11.9508
▁cabin	-11.9512
▁SPA	-11.9513
▁Off	-11.9514
▁Centraal	-11.9514
ons	-11.9519
▁researching	-11.952
▁glorious	-11.952
ory	-11.9522
▁enthusiastic	-11.9525
▁wrapped	-11.9527
eat	-11.9529
18	-11.9531
▁boogie	-11.9533
▁product	-11.9537
▁singapore	-11.9546
▁thousands	-11.9547
▁referred	-11.9553
▁loop	-11.9559
▁ideas	-11.9562
▁Mayor	-11.9567
▁struggled	-11.9568
▁te	-11.9568
▁evidence	-11.9571
▁anxious	-11.9571
▁communal	-11.9571
tal	-11.9572
cing	-11.9575
▁Breakfasts	-11.9575
▁6)	-11.9581
▁arms	-11.9582
~	-11.9582
▁personalized	-11.9585
▁07	-11.9587
euros	-11.9588
▁terminals	-11.959
▁Ubud	-11.9597
▁Campo	-11.9598
▁definatly	-11.9603
▁minded	-11.9607
▁file	-11.9609
▁Nord	-11.9611
▁Services	-11.9613
▁boot	-11.9613
▁disagree	-11.9616
▁NYNY	-11.9617
▁Tips	-11.9617
▁Cost	-11.9618
dis	-11.9622
thanks	-11.9622
▁winner	-11.9624
▁ping	-11.9624
su	-11.9625
▁graciously	-11.9625
▁ME	-11.9643
▁driven	-11.9645
▁Expect	-11.9651
▁Queens	-11.9653
▁Dutch	-11.9655
▁Aya	-11.9658
▁turkish	-11.9661
▁stepping	-11.9662
▁Harrahs	-11.9662
▁5-6	-11.9665
▁interaction	-11.9666
▁facial	-11.9667
▁strength	-11.9668
▁frosted	-11.9675
Yes	-11.9679
▁motor	-11.968
▁maximum	-11.9681
▁Give	-11.9681
▁neighborhoods	-11.9689
low	-11.9694
▁sheer	-11.9695
table	-11.9696
▁Cable	-11.9698
▁functioning	-11.9702
▁satisfy	-11.9703
ES	-11.9703
▁fortunately	-11.9712
now	-11.9713
▁critical	-11.9713
▁Should	-11.9716
▁aggressive	-11.9717
▁switches	-11.9718
14	-11.9718
▁coffeemaker	-11.9722
▁usage	-11.9724
ew	-11.9725
▁k	-11.9727
green	-11.973
▁Furthermore	-11.9733
▁denied	-11.9739
▁Half	-11.9739
▁deserved	-11.9744
▁kiosk	-11.9745
▁vacuum	-11.9745
▁€	-11.9747
▁CN	-11.9751
▁poster	-11.9752
▁mugs	-11.9764
Le	-11.9764
▁Whenever	-11.9764
date	-11.9765
▁spirit	-11.9765
Service	-11.9767
▁rust	-11.9768
▁folded	-11.9771
▁entrees	-11.9772
▁accordingly	-11.9776
▁eco	-11.978
always	-11.9782
▁salon	-11.9785
▁Pass	-11.9785
▁Champagne	-11.9791
▁wa	-11.9798
▁7-11	-11.98
▁Atlantic	-11.981
▁chest	-11.9811
▁disapointed	-11.9811
▁merely	-11.9813
rk	-11.9817
early	-11.9819
▁soundproof	-11.9824
▁bin	-11.9824
▁Field	-11.9824
▁Came	-11.983
▁picnic	-11.9831
▁region	-11.9835
▁Mi	-11.9837
▁inquire	-11.9837
▁Arizona	-11.9837
▁powder	-11.9838
▁locally	-11.9841
▁proud	-11.9841
▁pity	-11.9843
▁kicked	-11.9843
▁cafeteria	-11.9844
▁accustomed	-11.985
▁Definately	-11.985
▁1-2	-11.9851
▁Inside	-11.9855
since	-11.9856
▁Catherine	-11.9857
▁refreshed	-11.9859
▁palapa	-11.9863
▁08	-11.9867
▁fighting	-11.9871
▁CONS	-11.9875
▁drawbacks	-11.9878
▁jewel	-11.9884
▁thankful	-11.9884
After	-11.9885
▁herself	-11.9886
easy	-11.9886
▁upside	-11.9887
▁silent	-11.989
▁makers	-11.989
ville	-11.9891
fully	-11.9892
▁Frankfurt	-11.9896
▁platform	-11.9896
▁romance	-11.9897
▁mass	-11.9899
ky	-11.9902
▁awakened	-11.9905
▁witnessed	-11.9905
▁pp	-11.9907
▁Mom	-11.9907
▁customs	-11.9907
Ma	-11.9916
▁clogged	-11.9916
▁glance	-11.9916
work	-11.9917
▁loves	-11.9919
▁experiencing	-11.9923
▁busiest	-11.9927
▁Tuscany	-11.9931
▁4.5	-11.9931
St	-11.9933
▁Orbitz	-11.9936
▁breaking	-11.9937
▁digital	-11.9939
▁compliment	-11.9939
▁alcoholic	-11.994
▁imagined	-11.994
▁Seaport	-11.995
▁Shores	-11.9951
▁suprise	-11.9962
▁huts	-11.9963
▁bellboy	-11.9963
▁stalls	-11.9964
almost	-11.9967
▁Normally	-11.997
▁laptops	-11.997
▁Left	-11.9977
▁quad	-11.9978
▁wineries	-11.9978
▁satisfying	-11.9981
▁sunday	-11.9982
/2	-11.9984
ren	-11.9985
▁kitchens	-11.9989
▁Swimming	-11.999
▁Soleil	-11.9996
▁truely	-11.9996
▁sixth	-11.9997
▁handicap	-12.0003
▁$$$	-12.0013
▁soaked	-12.0016
▁counters	-12.0016
-1	-12.0017
lan	-12.0019
▁Except	-12.0022
▁spoilt	-12.0022
▁acknowledge	-12.0022
▁McDonald	-12.0023
▁seemingly	-12.0031
▁fail	-12.0034
▁exotic	-12.0036
▁hopping	-12.0037
▁savings	-12.004
▁locks	-12.0041
▁divine	-12.0043
▁mere	-12.0044
▁Toilet	-12.005
▁Fa	-12.005
▁res	-12.0052
real	-12.0055
▁hammock	-12.0057
▁union	-12.0059
▁Fifth	-12.0063
▁gonna	-12.0064
▁circus	-12.0066
▁$90	-12.0068
▁potato	-12.0069
▁AGAIN	-12.007
▁Friends	-12.0072
▁10.30	-12.0074
▁privileges	-12.0074
▁Mardi	-12.0075
▁Familia	-12.0077
▁weary	-12.0081
▁stroller	-12.0086
ple	-12.0086
▁holder	-12.0088
▁theaters	-12.009
Pool	-12.0093
_	-12.0093
▁allergies	-12.0097
▁patience	-12.0097
rie	-12.0101
05	-12.0102
once	-12.0103
▁negotiate	-12.0103
▁volcano	-12.0103
▁reflect	-12.0109
strip	-12.0111
▁answers	-12.0115
▁appalling	-12.0117
▁shout	-12.0117
om	-12.0124
bs	-12.0127
▁homemade	-12.0129
▁Chichen	-12.013
▁losing	-12.013
▁hostels	-12.0131
▁material	-12.0132
ther	-12.0137
price	-12.014
▁bldg	-12.0144
▁fixing	-12.0146
▁senior	-12.0152
▁lied	-12.0154
bit	-12.0157
▁quarters	-12.0163
ette	-12.0163
▁Paradisus	-12.0164
▁Sa	-12.017
▁questioned	-12.0174
▁helpfulness	-12.0174
▁Rewards	-12.0174
wa	-12.0176
▁splash	-12.0177
▁deserted	-12.0177
▁$5.00	-12.0179
▁bumped	-12.018
USD	-12.0181
▁gates	-12.0182
▁Texas	-12.0185
casino	-12.0189
▁chaotic	-12.0191
▁110	-12.0195
▁painless	-12.02
▁Buy	-12.0208
ual	-12.0215
▁Totally	-12.0221
He	-12.0225
▁affected	-12.0225
▁cloud	-12.0225
▁$120	-12.0227
▁sincere	-12.0228
▁Whatever	-12.0228
▁headboard	-12.0229
art	-12.0233
▁pushing	-12.0235
▁pouring	-12.0236
▁GPS	-12.024
▁Publix	-12.0253
▁United	-12.0255
▁MY	-12.0261
▁intersection	-12.0267
▁Su	-12.027
▁Sagrada	-12.0273
2)	-12.0274
▁Wal	-12.0274
▁restored	-12.0275
▁burnt	-12.0279
▁décor	-12.028
▁vodka	-12.028
▁japanese	-12.0281
▁Millennium	-12.0287
▁Per	-12.0289
buffet	-12.029
▁joint	-12.029
ged	-12.0292
under	-12.0292
▁UN	-12.0293
▁individuals	-12.0294
▁ho	-12.03
▁Liberty	-12.0301
▁circle	-12.0303
▁radiator	-12.031
▁parade	-12.0313
▁displayed	-12.0314
gra	-12.0316
lobby	-12.0318
▁universal	-12.0319
▁Seven	-12.032
▁sucks	-12.0322
▁rundown	-12.0322
▁drab	-12.0323
vo	-12.0326
▁sizes	-12.0328
fe	-12.0336
▁cushions	-12.0336
▁120	-12.0342
▁ca	-12.0343
cha	-12.0345
ada	-12.0346
▁.....	-12.0351
16	-12.0352
▁fabric	-12.0353
▁rug	-12.0361
▁daylight	-12.0362
▁oldest	-12.0363
shopping	-12.0363
▁dispenser	-12.0366
▁10-	-12.0367
▁backed	-12.0369
▁waitstaff	-12.037
▁Priority	-12.037
▁Festival	-12.0377
open	-12.0378
▁falls	-12.0384
▁Patrick	-12.0384
▁Century	-12.0384
▁seasons	-12.0384
▁hat	-12.0395
▁tiki	-12.0398
▁assure	-12.0405
▁magazines	-12.0405
▁refer	-12.0405
>	-12.0407
▁wonderfull	-12.041
TS	-12.0411
▁Kudos	-12.0412
▁frustration	-12.0412
▁Prior	-12.0412
▁mineral	-12.0412
▁tracks	-12.0413
▁soo	-12.0413
turn	-12.0419
▁fri	-12.0419
▁butts	-12.0422
▁messed	-12.0423
could	-12.0426
▁catamaran	-12.0429
▁costing	-12.043
▁em	-12.0432
▁possibility	-12.0433
▁Palmer	-12.0433
via	-12.0439
jo	-12.0444
dining	-12.0444
▁Up	-12.0445
oo	-12.0447
▁cigar	-12.045
tly	-12.0451
order	-12.0452
▁force	-12.0452
▁sleepers	-12.0453
▁Wilderness	-12.0453
▁Moana	-12.0454
▁source	-12.0455
ud	-12.0456
▁user	-12.0459
▁Kai	-12.0463
ang	-12.0464
▁ju	-12.0466
▁adjusted	-12.0467
▁$24	-12.0472
▁busier	-12.0474
▁Outstanding	-12.0474
▁produce	-12.0475
▁Q	-12.0476
▁crying	-12.0477
▁Lane	-12.0477
▁41	-12.0477
▁ringing	-12.0478
▁lame	-12.048
▁Situated	-12.0481
▁sharks	-12.0486
▁Floridian	-12.0488
-8	-12.0492
▁challenging	-12.0495
nce	-12.0501
▁soothing	-12.0502
▁[--]	-12.0503
▁pointing	-12.0503
▁tissue	-12.0506
▁Group	-12.0509
▁reunion	-12.0509
!!!)	-12.051
▁newest	-12.0514
same	-12.0515
▁Lenox	-12.0517
upgraded	-12.0518
▁diners	-12.0522
▁(1)	-12.0523
▁jack	-12.0523
▁Wife	-12.0524
▁eg	-12.0524
▁Cosmo	-12.053
▁ensured	-12.0531
▁Arts	-12.0533
▁departed	-12.0534
-30	-12.0534
19	-12.0534
den	-12.0538
season	-12.0538
▁$99	-12.0539
▁bathrobe	-12.0542
▁nearer	-12.0542
▁tends	-12.0543
door	-12.0544
▁stellar	-12.0545
▁Pleasant	-12.055
▁mode	-12.0553
▁tender	-12.0554
ale	-12.0554
▁driveway	-12.0555
▁Tony	-12.0557
▁Library	-12.0559
▁accompanied	-12.0559
still	-12.0562
▁cast	-12.0569
▁handling	-12.0569
▁flushing	-12.0575
▁appointments	-12.0576
▁saturday	-12.058
▁Platz	-12.0581
▁glazed	-12.0581
▁halfway	-12.0581
▁Arriving	-12.0587
▁Corona	-12.0587
▁paperwork	-12.0588
place	-12.0591
▁blackout	-12.0592
▁Travelocity	-12.0594
▁gratuity	-12.0594
▁awsome	-12.0594
▁bowls	-12.0594
station	-12.0597
▁Ideal	-12.0598
.........	-12.0598
▁boutiques	-12.0601
▁crammed	-12.0601
tu	-12.0604
▁Hour	-12.0605
▁bulb	-12.0606
▁sake	-12.0609
▁shorts	-12.061
▁kiddie	-12.0613
▁bend	-12.0615
ney	-12.0622
▁ALWAYS	-12.0623
▁causing	-12.0623
▁canceled	-12.0627
▁mexico	-12.063
▁technology	-12.063
▁smoker	-12.063
▁stressful	-12.063
tain	-12.0633
ai	-12.0634
▁Forget	-12.0634
▁Bars	-12.0635
▁5-7	-12.0635
ess	-12.0637
▁Basilica	-12.0637
▁lemon	-12.0637
▁beats	-12.0639
▁emptied	-12.0644
▁picturesque	-12.0646
▁Fri	-12.0647
")	-12.0647
▁apply	-12.0649
ches	-12.065
▁shares	-12.0656
▁winding	-12.0658
▁horribly	-12.0658
▁Rep	-12.0659
▁Pre	-12.0667
▁treadmill	-12.067
▁pe	-12.0672
▁Ambassador	-12.0673
▁conferences	-12.0677
▁Ho	-12.0677
▁behavior	-12.068
▁messages	-12.068
▁reaction	-12.068
▁corn	-12.0681
▁suggesting	-12.0685
▁ve	-12.0686
▁snorkling	-12.0687
▁flu	-12.0687
▁pina	-12.069
▁collected	-12.0694
▁silverware	-12.0694
pr	-12.0694
▁vehicles	-12.0699
▁slipped	-12.0701
uk	-12.0703
▁hopes	-12.0725
used	-12.0727
▁Ga	-12.0727
▁yoghurts	-12.073
▁plunge	-12.0734
▁Marmara	-12.0737
However	-12.074
▁ne	-12.0743
▁Others	-12.0745
▁midst	-12.0746
▁38	-12.075
market	-12.0753
▁margaritas	-12.0758
08	-12.0762
▁slices	-12.0763
▁Ti	-12.0764
17	-12.0774
▁Coming	-12.0774
▁sooner	-12.0779
qui	-12.078
card	-12.0784
▁considerate	-12.0787
▁bent	-12.079
-11	-12.0791
▁buzzing	-12.0793
ked	-12.0794
▁Jamaica	-12.0795
▁http	-12.0795
iv	-12.0795
▁recognize	-12.0796
part	-12.0796
▁saves	-12.0805
At	-12.0812
▁separately	-12.0817
▁fat	-12.0818
▁zip	-12.0819
▁po	-12.0819
▁earned	-12.082
▁sweets	-12.0823
▁judge	-12.0823
▁edible	-12.0823
▁essentials	-12.0832
▁Concha	-12.0835
▁President	-12.0837
▁versus	-12.0845
▁partly	-12.0846
pped	-12.0847
▁studios	-12.0848
▁Sleep	-12.0853
▁relatives	-12.0853
▁national	-12.0855
▁neighbouring	-12.0855
—	-12.0855
beautiful	-12.0855
▁LOL	-12.0857
▁cord	-12.0859
▁Quincy	-12.086
▁Coronado	-12.086
were	-12.0864
▁respectful	-12.0865
ST	-12.0866
pre	-12.0871
▁Royale	-12.0876
▁washcloths	-12.0879
▁generic	-12.0882
▁gentle	-12.0887
▁largely	-12.0889
toilet	-12.0892
▁inspection	-12.0896
▁coffees	-12.0898
▁Mama	-12.09
▁loyalty	-12.0904
hand	-12.0905
................	-12.0907
▁Alcatraz	-12.0911
▁Martin	-12.0913
every	-12.0915
▁obtain	-12.0918
▁handful	-12.092
▁suffered	-12.0923
▁weddings	-12.0924
set	-12.0925
▁Langham	-12.0925
▁Dreams	-12.0929
▁Liked	-12.0935
▁residence	-12.0939
▁continues	-12.0943
▁Walls	-12.0944
That	-12.0944
▁incorrect	-12.0944
▁Preferred	-12.0948
▁responsibility	-12.0955
▁horseback	-12.0955
▁Cannot	-12.0959
▁annex	-12.0962
▁Parrot	-12.0962
▁Horrible	-12.0962
▁ramp	-12.0968
▁delays	-12.0968
▁prob	-12.0969
main	-12.0976
▁loss	-12.0977
▁accidentally	-12.0977
hard	-12.0979
▁upmarket	-12.0981
read	-12.0983
▁Allegro	-12.0984
▁liquid	-12.0984
▁increase	-12.0985
▁com	-12.0987
▁seasoned	-12.0992
▁extrem	-12.0992
▁Whole	-12.0994
trip	-12.0995
▁fairness	-12.0997
▁Boy	-12.0999
▁reference	-12.0999
▁cloudy	-12.1001
▁Eurostar	-12.1003
ick	-12.1003
nes	-12.1004
▁(11	-12.1006
▁TINY	-12.1006
ko	-12.1008
▁disgusted	-12.1015
better	-12.1017
▁galleries	-12.1021
▁opportunities	-12.1021
▁mandatory	-12.1021
▁cameras	-12.1027
▁niece	-12.1036
▁barcelona	-12.1036
eo	-12.1037
Just	-12.104
▁Il	-12.1041
▁Monorail	-12.1043
▁RE	-12.1047
▁sing	-12.1048
▁feelings	-12.1049
▁storing	-12.1051
▁rainforest	-12.1051
▁Med	-12.1053
▁Local	-12.1054
-7	-12.1054
▁Think	-12.1055
▁Biltmore	-12.1058
▁pound	-12.106
ff	-12.1062
▁shaft	-12.1066
▁entree	-12.1066
cal	-12.1066
gar	-12.1067
▁Montparnasse	-12.1073
▁acknowledged	-12.1073
▁papers	-12.108
ez	-12.108
▁Rather	-12.1081
wow	-12.1083
ball	-12.1084
▁lug	-12.1085
▁nites	-12.1086
▁THERE	-12.1089
▁YES	-12.1091
▁WI	-12.1093
tra	-12.1095
▁Fenway	-12.1103
▁PDC	-12.1103
▁pour	-12.1103
▁theft	-12.1104
ens	-12.1104
▁drunken	-12.1105
▁carmen	-12.1106
▁pathetic	-12.1107
▁800	-12.111
▁shots	-12.1116
▁Cler	-12.1118
▁weekdays	-12.1121
▁fool	-12.1122
▁Outrigger	-12.1125
▁marathon	-12.1125
▁grumpy	-12.1125
▁pirate	-12.1125
▁dissappointed	-12.1125
▁faded	-12.1126
▁Jo	-12.113
▁Underground	-12.1133
▁lukewarm	-12.1133
▁subject	-12.1135
▁treasure	-12.114
through	-12.1141
▁discussion	-12.1141
▁makeover	-12.1142
▁incl	-12.1143
▁safer	-12.1144
▁routine	-12.1145
▁gain	-12.1149
▁shell	-12.1153
▁Cuba	-12.1154
▁Believe	-12.1155
▁72	-12.1157
▁glowing	-12.1157
▁Trust	-12.1163
▁designated	-12.1164
ran	-12.1167
▁matched	-12.1168
▁retro	-12.1171
ide	-12.1173
▁proofing	-12.1179
▁Gala	-12.1179
▁field	-12.1181
▁Brilliant	-12.1185
▁Met	-12.1186
▁cousin	-12.1187
▁prison	-12.1189
▁soccer	-12.1193
▁Floridays	-12.1193
▁landscape	-12.1193
▁ongoing	-12.1196
▁stench	-12.12
24	-12.1203
▁vents	-12.1206
ola	-12.1207
ara	-12.1208
▁Initially	-12.1208
▁pen	-12.1215
▁plugged	-12.1216
lin	-12.1216
▁dryers	-12.1219
▁cats	-12.1223
▁ethernet	-12.1223
▁threatened	-12.1223
▁layover	-12.1224
▁(9	-12.1229
▁mi	-12.123
▁amounts	-12.1234
▁shampoos	-12.1235
▁flexible	-12.1238
▁wound	-12.1242
▁eaters	-12.1245
▁Bugis	-12.1245
▁wanna	-12.1246
▁questionable	-12.1249
▁unnecessary	-12.1253
▁occurred	-12.1253
▁PROS	-12.1254
▁gelato	-12.1261
▁shorter	-12.1264
▁physical	-12.1266
▁discuss	-12.1268
▁Alexanderplatz	-12.1268
lie	-12.1271
/12	-12.1272
▁freezer	-12.1274
▁Luau	-12.1276
▁Views	-12.1276
é	-12.1277
▁performance	-12.1277
▁buttons	-12.1277
▁Lion	-12.1283
▁retail	-12.1284
ip	-12.1288
▁satellite	-12.1291
▁winning	-12.1292
▁tab	-12.1292
▁gondola	-12.1292
▁pullout	-12.1293
▁Summer	-12.1295
▁guessing	-12.1297
▁ver	-12.1297
▁Brazilian	-12.1299
▁Springs	-12.13
despite	-12.1302
▁Les	-12.1302
▁professionally	-12.1303
▁unavailable	-12.1314
TMre	-12.1317
ki	-12.1319
▁RCI	-12.1323
▁compensated	-12.1324
▁Australian	-12.1326
▁cathedral	-12.1329
▁whereas	-12.1329
▁rec	-12.1332
▁overheard	-12.1332
tter	-12.1336
▁̃	-12.1337
▁Drake	-12.1337
▁ta	-12.1341
mart	-12.1343
ph	-12.1343
▁Calistoga	-12.1344
▁indoors	-12.1346
▁Add	-12.1348
late	-12.1349
▁justify	-12.1351
tte	-12.1354
▁demanding	-12.1358
comfortable	-12.1362
▁systems	-12.1363
▁affair	-12.1367
▁differently	-12.1369
▁tournament	-12.1369
▁Zero	-12.1371
▁christmas	-12.1375
▁Hurricane	-12.1375
why	-12.1379
gi	-12.1381
01	-12.1382
▁greasy	-12.1383
▁operating	-12.1383
ong	-12.139
55	-12.1392
▁throwing	-12.1395
▁blocking	-12.1396
ag	-12.1396
▁CDG	-12.1398
▁cottages	-12.14
▁moon	-12.1404
▁stereo	-12.1409
ial	-12.141
▁leftovers	-12.1411
▁matress	-12.1412
▁Premium	-12.1413
▁Plan	-12.1414
▁relations	-12.1415
han	-12.1418
ab	-12.142
▁paintings	-12.142
▁moan	-12.1431
▁POOL	-12.1435
▁;-)	-12.1437
▁continually	-12.1437
????	-12.1437
▁bizarre	-12.1444
▁pipe	-12.1451
ui	-12.1456
▁$28	-12.1459
▁Prudential	-12.146
▁steel	-12.146
▁considerable	-12.146
▁mod	-12.1465
▁bothering	-12.1466
▁Miguel	-12.1467
▁streetcar	-12.1468
-12	-12.1469
▁coin	-12.1474
▁repetitive	-12.1483
▁boss	-12.1484
▁freak	-12.149
▁Coba	-12.1491
days	-12.1491
drink	-12.1492
▁Nob	-12.1492
▁barman	-12.1496
▁reluctant	-12.1496
▁Grove	-12.1501
13	-12.1504
▁obliging	-12.1506
▁Boutique	-12.1506
▁friday	-12.1507
▁mug	-12.1508
▁hamburger	-12.1508
▁apt	-12.1513
▁batteries	-12.1514
▁Lincoln	-12.1514
box	-12.1521
▁lavish	-12.1527
▁docking	-12.1529
▁assisting	-12.1533
▁Play	-12.1537
van	-12.1538
▁Call	-12.154
hotels	-12.154
▁refurb	-12.1541
▁Catalonia	-12.1545
▁temporary	-12.1545
▁circular	-12.1545
▁airplane	-12.1549
▁vacationing	-12.1553
pt	-12.1553
▁sailing	-12.1557
▁bananas	-12.1559
▁ma	-12.1562
▁pong	-12.1563
▁BR	-12.1569
▁helicopter	-12.1571
▁soul	-12.1578
▁(12	-12.1579
▁bo	-12.158
many	-12.158
▁becoming	-12.1585
▁Part	-12.1589
Go	-12.1593
▁Need	-12.1609
▁entitled	-12.1609
▁flushed	-12.1609
▁Saw	-12.161
▁37	-12.161
/5	-12.1613
▁image	-12.1614
▁sewer	-12.1615
▁contrary	-12.1615
ns	-12.1617
▁Thought	-12.1618
▁admission	-12.1623
▁roaming	-12.1625
▁creative	-12.1631
▁dripping	-12.1631
▁custom	-12.1632
▁thoughts	-12.1633
▁platter	-12.1634
▁unpacked	-12.1636
▁85	-12.1636
▁Live	-12.1637
▁Coke	-12.164
▁Imagine	-12.1647
▁touristic	-12.1649
▁coordinator	-12.1654
▁Tiny	-12.1656
▁Boat	-12.1658
▁posters	-12.1659
▁compelled	-12.1662
▁understated	-12.1663
▁ppl	-12.1663
▁similarly	-12.1663
gu	-12.1667
▁necessities	-12.167
▁pluses	-12.1672
▁signage	-12.1676
▁Trolley	-12.1678
mp	-12.168
ement	-12.1681
▁Indianapolis	-12.1686
▁fascinating	-12.1686
▁Gallery	-12.1686
▁Jersey	-12.1686
▁Property	-12.1694
▁billing	-12.1699
dge	-12.1701
▁era	-12.1704
▁Dolphin	-12.1706
▁shocking	-12.1707
-6	-12.1708
▁EXTREMELY	-12.171
▁WDW	-12.1711
▁bride	-12.1711
▁nightstand	-12.1712
TV	-12.1714
▁!!!!	-12.1714
▁comps	-12.1714
Co	-12.1718
▁materials	-12.1724
▁Moon	-12.1724
▁Guess	-12.1726
ron	-12.1727
anapali	-12.1733
▁Sushi	-12.1734
▁lengthy	-12.1734
▁series	-12.1734
▁assuming	-12.1734
▁mon	-12.1738
▁hollywood	-12.1741
▁steer	-12.1743
▁session	-12.1745
▁Between	-12.1749
▁mobility	-12.1749
▁stream	-12.175
▁bits	-12.175
▁Pi	-12.1752
expensive	-12.1753
▁explored	-12.1757
▁gravy	-12.1757
▁excellence	-12.1757
▁mud	-12.1758
▁charger	-12.1759
Well	-12.176
▁Ex	-12.1761
will	-12.1765
▁allergic	-12.1765
▁purchasing	-12.1765
▁ski	-12.1768
▁contract	-12.1775
wi	-12.1776
▁rubber	-12.1779
▁struck	-12.1781
▁Open	-12.1783
▁09	-12.1784
▁planet	-12.1785
▁Comfy	-12.1789
#	-12.179
▁dare	-12.1795
IT	-12.1795
▁rectified	-12.1797
▁Throughout	-12.1798
oli	-12.1802
▁Less	-12.1803
living	-12.1803
02	-12.1804
▁fraction	-12.1805
ism	-12.1807
▁model	-12.1808
self	-12.1809
▁Carpet	-12.181
▁Drink	-12.181
▁conveniences	-12.1811
cheap	-12.1811
▁slower	-12.1812
▁pregnant	-12.1821
▁Fairfield	-12.1821
▁tow	-12.1822
your	-12.1822
▁project	-12.1824
ging	-12.1824
▁poured	-12.1825
pro	-12.1826
gh	-12.1826
▁craziness	-12.1829
▁paddle	-12.1829
▁hiking	-12.183
▁WHAT	-12.183
▁www	-12.1834
ile	-12.1837
▁Tapas	-12.1838
▁rusty	-12.184
chi	-12.1845
▁raw	-12.1848
must	-12.1848
▁businesses	-12.185
des	-12.1851
▁pizzas	-12.1851
▁Cha	-12.1854
vis	-12.1858
ero	-12.1859
▁7.30	-12.1864
▁debit	-12.1867
ita	-12.1869
▁fond	-12.1872
ments	-12.1876
▁unclean	-12.1876
▁PLEASE	-12.1878
rt	-12.1886
rise	-12.1886
▁Self	-12.1889
▁Jack	-12.189
ik	-12.1893
▁Mc	-12.1893
▁lag	-12.1893
▁countless	-12.1895
▁rudeness	-12.1896
ow	-12.1897
▁sticking	-12.1899
ions	-12.1902
got	-12.1902
▁echo	-12.1902
▁martini	-12.1907
ade	-12.1907
quite	-12.1908
▁turquoise	-12.191
▁Total	-12.1911
▁Nick	-12.1915
▁Windows	-12.1918
actually	-12.192
▁filet	-12.1922
▁crepes	-12.1923
▁surround	-12.1924
▁banquet	-12.1926
▁scattered	-12.1926
▁infant	-12.1926
ure	-12.1928
▁rings	-12.1933
▁ti	-12.1933
▁Brown	-12.1934
▁micro	-12.1934
▁utilize	-12.1935
lic	-12.194
ction	-12.1945
▁flooring	-12.1948
▁gigantic	-12.195
▁learning	-12.1951
▁Eat	-12.1952
▁shoulders	-12.1952
rest	-12.1952
▁quit	-12.1953
▁swift	-12.1956
▁expressed	-12.1959
▁Pearl	-12.1961
▁hooked	-12.1964
▁rib	-12.1968
▁Church	-12.1975
▁relieved	-12.1976
▁dire	-12.1977
▁Sultan	-12.1983
▁extent	-12.1983
▁quay	-12.1984
▁knees	-12.199
▁reward	-12.199
▁fe	-12.1991
▁desirable	-12.1991
▁shaving	-12.1991
▁SGD	-12.1992
deluxe	-12.1995
▁teen	-12.1998
▁grills	-12.2
▁delivers	-12.2003
▁impact	-12.2004
▁(30	-12.2004
▁roach	-12.2007
▁($1	-12.2007
▁Facilities	-12.2007
▁joining	-12.2012
▁Transportation	-12.2016
▁drawn	-12.2017
▁istanbul	-12.2017
▁Chateau	-12.2018
another	-12.202
helpful	-12.2021
▁tin	-12.2023
izing	-12.2024
br	-12.2025
▁Tom	-12.2031
▁audience	-12.2032
▁surpassed	-12.2032
▁44	-12.2033
ica	-12.2036
▁Luis	-12.2037
▁insects	-12.2038
▁$10.00	-12.2042
▁Bambu	-12.2048
point	-12.2048
▁songs	-12.2055
▁Excelsior	-12.2056
▁surcharge	-12.2056
▁screened	-12.2056
▁lamb	-12.2058
▁attract	-12.2061
▁thirty	-12.2064
▁timing	-12.2065
▁register	-12.2066
▁LOUD	-12.2073
▁Galleria	-12.2073
▁Cool	-12.2075
▁lobbies	-12.2081
▁airlines	-12.2082
▁Mother	-12.2082
bi	-12.2082
▁meets	-12.2084
rry	-12.2084
▁partake	-12.2084
▁DID	-12.2095
▁Marais	-12.2098
▁Daily	-12.2098
▁earn	-12.21
▁sore	-12.2102
yo	-12.2105
▁app	-12.2111
/08	-12.2112
▁muffin	-12.2112
▁chefs	-12.2112
▁Lexington	-12.2114
▁Anything	-12.2114
hours	-12.2119
ware	-12.2126
.30	-12.2126
▁Dollar	-12.2129
▁relation	-12.2129
▁furthest	-12.213
▁refridgerator	-12.213
Italian	-12.2134
▁iced	-12.2135
▁killed	-12.2136
▁Che	-12.2138
▁Safeway	-12.2139
ites	-12.2141
▁ducks	-12.2143
▁Jean	-12.2146
▁Living	-12.2147
▁rue	-12.2148
▁banks	-12.2149
▁Whether	-12.215
▁louder	-12.2153
▁Morning	-12.2163
De	-12.2164
fish	-12.2169
▁husbands	-12.2169
▁honesty	-12.2174
▁kayaks	-12.2178
▁FS	-12.2179
▁Conference	-12.218
▁Thomas	-12.218
▁ingredients	-12.2186
▁results	-12.2187
▁curious	-12.219
▁Gi	-12.2197
▁Ne	-12.2199
EN	-12.22
▁gathering	-12.22
▁castle	-12.2201
▁freshener	-12.2203
ico	-12.2206
concierge	-12.2209
▁stressed	-12.2209
▁Heathrow	-12.2213
▁complicated	-12.2213
▁nuisance	-12.2213
▁settings	-12.2213
▁offices	-12.2214
▁duvets	-12.2215
kids	-12.2216
Thank	-12.2216
▁HORRIBLE	-12.2222
OK	-12.2226
average	-12.2226
due	-12.223
▁Hancock	-12.223
▁wandered	-12.223
▁cracks	-12.223
▁Kuta	-12.223
▁250	-12.2235
▁Sir	-12.2236
▁Napili	-12.2238
▁Harry	-12.2239
Only	-12.2239
▁Extra	-12.2242
bad	-12.2243
/07	-12.2244
▁insult	-12.2245
phone	-12.2247
▁Tourist	-12.225
▁laps	-12.2253
ek	-12.2254
New	-12.226
sta	-12.2262
mid	-12.2264
▁holds	-12.2265
boutique	-12.2268
▁taps	-12.227
▁Beacon	-12.2272
▁Puerta	-12.2272
▁score	-12.2274
▁Dana	-12.2276
▁Ballys	-12.2278
▁definatley	-12.228
aged	-12.2283
▁manageable	-12.229
▁Fast	-12.2293
▁Victor	-12.2294
▁Whalers	-12.2295
TE	-12.2295
▁dawn	-12.2297
▁independent	-12.2303
▁extension	-12.2305
▁defintely	-12.2305
▁recognized	-12.2305
-15	-12.2308
their	-12.2309
share	-12.2311
▁tolerable	-12.2314
▁strolling	-12.2318
▁Spend	-12.2319
▁waits	-12.2321
▁sisters	-12.2322
▁Factory	-12.2322
▁thread	-12.2323
▁portable	-12.2325
▁Carte	-12.2326
▁Miracle	-12.2331
▁crackers	-12.2332
06	-12.2333
▁primary	-12.2339
04	-12.2341
▁decently	-12.2342
▁weekly	-12.2342
note	-12.2342
▁blah	-12.2344
▁homey	-12.2344
▁foul	-12.2345
▁bat	-12.2346
▁pile	-12.2348
▁hype	-12.2349
lar	-12.2351
ou	-12.2352
▁Mario	-12.2355
mostly	-12.2357
▁icing	-12.2358
▁picks	-12.237
▁task	-12.2372
▁capital	-12.2373
▁measure	-12.2373
▁depart	-12.2374
▁Rent	-12.2376
-2	-12.2378
▁Walked	-12.2382
Q	-12.2384
▁tubes	-12.2384
▁shine	-12.2384
▁faint	-12.2388
▁£1	-12.2389
▁difficulties	-12.2394
facing	-12.2395
▁identical	-12.2398
▁queries	-12.2398
▁Canadians	-12.2399
▁Welcome	-12.24
▁Glad	-12.2401
▁yo	-12.2405
ona	-12.2406
▁sunbathing	-12.2407
▁easiest	-12.2407
era	-12.2407
fer	-12.2407
▁Granville	-12.2407
▁bedspreads	-12.2411
▁opulent	-12.2415
▁stunk	-12.2415
people	-12.2419
▁Bu	-12.2421
▁Pat	-12.2422
▁cabinets	-12.2423
zi	-12.2424
▁Office	-12.2424
▁ownership	-12.2424
▁$55	-12.2425
▁understandable	-12.2426
shirts	-12.243
▁lovers	-12.243
▁sex	-12.2431
▁straw	-12.2431
▁gather	-12.2433
▁screwed	-12.2436
09	-12.2439
▁debris	-12.2441
world	-12.2442
▁fingers	-12.2444
▁drown	-12.2446
▁sidewalks	-12.2446
▁cappucino	-12.245
ET	-12.2451
▁generously	-12.2454
▁ive	-12.2456
▁Ms	-12.2457
▁́	-12.2457
▁Cab	-12.2458
▁Ben	-12.246
▁Weather	-12.2461
▁Gas	-12.2462
TH	-12.2464
cheese	-12.2465
▁refreshments	-12.2465
!!!!!!!	-12.2466
▁Belvedere	-12.2466
▁flood	-12.2468
▁reduce	-12.2469
▁purely	-12.2471
▁needle	-12.2475
▁dragging	-12.2475
▁$19	-12.2478
▁colours	-12.2479
▁sa	-12.2479
gg	-12.248
▁Te	-12.2482
▁flaws	-12.2486
ura	-12.2489
ets	-12.249
▁sofabed	-12.2491
▁preparing	-12.2492
approx	-12.2496
▁cooled	-12.25
ups	-12.2501
▁Noisy	-12.2501
▁Evening	-12.2502
▁blend	-12.2502
▁Mag	-12.2506
▁external	-12.2509
▁altogether	-12.2509
▁valid	-12.2509
▁Verde	-12.2509
▁chances	-12.2515
▁turkey	-12.2518
▁Clearly	-12.2518
LE	-12.252
▁fitting	-12.2523
▁Size	-12.2526
▁periods	-12.253
21	-12.2531
▁glimpse	-12.2535
▁unusually	-12.2537
lle	-12.2538
▁Bob	-12.2541
▁entrances	-12.2542
▁robbed	-12.2544
▁sipping	-12.2544
▁luke	-12.2544
▁reeked	-12.2545
▁hardwood	-12.2557
▁tide	-12.256
▁compliments	-12.2561
mas	-12.2564
▁2003	-12.2568
▁($2	-12.2569
▁Gogh	-12.257
▁valley	-12.2578
▁limits	-12.2579
▁Chi	-12.258
▁updates	-12.2582
▁$65	-12.2587
07	-12.2588
▁ra	-12.259
▁inclusives	-12.2592
▁inclined	-12.2597
▁Fire	-12.2598
nights	-12.2599
metro	-12.26
▁lies	-12.2603
▁beneath	-12.2604
▁Upper	-12.2605
▁abit	-12.2605
▁THEY	-12.2607
each	-12.261
▁Lani	-12.2611
▁core	-12.2612
▁Lanai	-12.2613
▁SeaWorld	-12.2613
▁Activities	-12.2614
▁flea	-12.2615
▁frequented	-12.2618
ven	-12.2618
continental	-12.2619
▁containing	-12.2624
▁stair	-12.2626
▁Late	-12.2626
▁sp	-12.2631
▁uphill	-12.2631
block	-12.2633
▁wiped	-12.2636
▁swipe	-12.2636
▁weekday	-12.2637
▁unlucky	-12.2639
▁24/7.	-12.264
▁tomato	-12.2641
▁Heavenly	-12.2641
▁waterslide	-12.2642
▁faultless	-12.2644
▁pleasurable	-12.2647
▁tunnel	-12.2647
▁Virgin	-12.265
▁dual	-12.2654
▁confident	-12.2654
ically	-12.266
Pa	-12.266
▁Th	-12.2664
▁jacket	-12.2666
▁whoever	-12.2667
▁quietly	-12.2668
▁oddly	-12.267
▁Midway	-12.2674
▁#3	-12.2678
come	-12.2678
▁crashing	-12.2682
▁exorbitant	-12.2682
ight	-12.2686
▁overrated	-12.2686
▁utterly	-12.2692
▁companion	-12.2694
▁angle	-12.2695
▁Mid	-12.2698
▁guacamole	-12.27
):	-12.2702
▁dislike	-12.2703
▁gal	-12.2703
Free	-12.2704
-9	-12.2704
▁invest	-12.2705
▁Bliss	-12.2708
▁lighted	-12.2709
ub	-12.271
ants	-12.2713
▁$10/	-12.2716
▁carpark	-12.2716
▁Lagoon	-12.2718
▁shopped	-12.272
conditioner	-12.2721
luxury	-12.2722
fashioned	-12.2722
▁horns	-12.2725
▁Meridien	-12.2726
▁Quetzal	-12.2727
▁$20.00	-12.2729
▁kayaking	-12.273
serve	-12.2731
▁Ever	-12.2732
▁elements	-12.2732
▁$32	-12.2734
▁flowing	-12.2734
▁Fridge	-12.2735
▁06	-12.274
▁Typical	-12.2741
▁winds	-12.2743
Car	-12.2743
▁whale	-12.2744
▁tempted	-12.2744
▁crawl	-12.2745
while	-12.2746
▁fence	-12.2746
▁furnishing	-12.2746
▁sail	-12.2746
▁bound	-12.2747
extra	-12.2749
ani	-12.275
▁mu	-12.2751
▁3/4	-12.2752
▁respite	-12.2753
▁$26	-12.2755
▁Rush	-12.2762
▁motion	-12.2763
aly	-12.2764
▁kayak	-12.2768
▁Gothic	-12.277
▁spirits	-12.2771
▁Anna	-12.2771
▁iguanas	-12.2772
▁cigars	-12.2775
▁OJ	-12.278
▁Cat	-12.2781
ator	-12.2784
gy	-12.2785
▁Nadia	-12.2788
range	-12.2789
▁DC	-12.2793
May	-12.28
▁reps	-12.2802
subway	-12.281
▁lastminute	-12.2813
▁admitted	-12.2813
▁stank	-12.2814
ched	-12.2815
▁Us	-12.282
▁chandeliers	-12.2823
▁Safari	-12.2823
▁Creek	-12.2823
▁parasailing	-12.2824
▁brochures	-12.2826
▁registered	-12.2827
▁voices	-12.2827
▁drunks	-12.2828
▁Vieques	-12.2841
▁sport	-12.2842
pet	-12.2842
▁rooftops	-12.2843
▁detract	-12.2844
lies	-12.2849
▁Crown	-12.285
▁BEAUTIFUL	-12.285
▁rat	-12.285
▁Hello	-12.2851
▁Cove	-12.2853
▁Sand	-12.2855
▁Mickey	-12.2859
▁olives	-12.2859
▁7-	-12.2859
▁Roberto	-12.286
ls	-12.2866
▁utilized	-12.2866
▁vacant	-12.2868
▁Today	-12.2874
▁battery	-12.2877
▁preferences	-12.2879
▁overseas	-12.288
ld	-12.288
▁Adventure	-12.2885
▁Causeway	-12.2885
▁Balcony	-12.2885
▁mistakes	-12.2887
▁alittle	-12.2887
▁mac	-12.2887
▁Li	-12.2888
▁trails	-12.2889
travel	-12.2891
▁subways	-12.2894
▁Gaudi	-12.2894
▁feeding	-12.2895
ters	-12.2896
▁polished	-12.2896
▁alternate	-12.2897
▁dam	-12.2901
▁Tortuga	-12.2903
▁Mercure	-12.2903
▁Edison	-12.2903
▁anti	-12.2905
▁introduced	-12.2906
▁privilege	-12.2908
▁occupants	-12.2911
wine	-12.2911
▁Gourmet	-12.2912
ella	-12.2915
▁candle	-12.2916
▁id	-12.2916
tourist	-12.2921
je	-12.2921
gue	-12.2925
▁landmarks	-12.2927
▁sumptuous	-12.293
▁Moreover	-12.2931
▁song	-12.2942
sed	-12.2945
▁severe	-12.2947
▁PLACE	-12.2948
▁embarrassed	-12.2948
▁broadband	-12.2948
▁nevertheless	-12.2948
▁Mahana	-12.2948
▁Ana	-12.2949
Bar	-12.2954
MA	-12.2956
▁BEWARE	-12.2957
▁immensely	-12.2958
▁engaged	-12.296
kitchen	-12.2961
▁LONG	-12.2966
worth	-12.2968
▁Europa	-12.2972
▁char	-12.2972
TMm	-12.2976
safe	-12.2976
▁wich	-12.2982
▁danish	-12.2983
▁facade	-12.2984
▁dissapointing	-12.2985
▁conscious	-12.2985
▁bungalow	-12.2987
illa	-12.299
▁Marathon	-12.2993
▁Jet	-12.2995
▁Tim	-12.2996
▁bothersome	-12.2997
▁2011,	-12.2999
nny	-12.3
▁vatican	-12.3002
▁activites	-12.3002
▁bleach	-12.3002
▁Rest	-12.3002
lunch	-12.3002
▁observation	-12.3005
▁headache	-12.3006
First	-12.3006
▁Ci	-12.3009
▁blessing	-12.3011
beds	-12.3019
ative	-12.3019
▁Wellington	-12.302
▁infested	-12.302
▁troubles	-12.3021
▁prayer	-12.3028
▁Enough	-12.3029
▁poisoning	-12.3029
▁madness	-12.303
▁AWAY	-12.3031
▁fiancee	-12.3031
▁killer	-12.3031
Although	-12.3033
▁Bowl	-12.3035
▁Stadium	-12.3038
▁quantity	-12.3038
▁Prime	-12.3038
▁heels	-12.3043
▁believed	-12.3045
22	-12.3046
▁reflection	-12.3057
▁stumbled	-12.3059
▁Kea	-12.306
▁photographer	-12.306
▁diverse	-12.3063
▁glitch	-12.3064
▁cove	-12.3065
▁Balboa	-12.3065
▁realy	-12.3068
▁goal	-12.3072
▁Bon	-12.3073
▁HHonors	-12.3074
▁bass	-12.3075
▁lover	-12.3076
▁mainland	-12.3078
▁vacationers	-12.3082
▁den	-12.3082
cool	-12.3084
▁Dis	-12.3087
▁escalator	-12.3087
▁Hideaway	-12.3092
▁closely	-12.3093
/3	-12.3094
▁bi	-12.3096
perhaps	-12.3097
▁hors	-12.3097
▁Yunque	-12.3101
▁abroad	-12.3101
▁tasteless	-12.3102
▁lesser	-12.3102
▁Nobody	-12.3103
▁hum	-12.311
▁ot	-12.3113
▁$15/	-12.3117
sco	-12.3118
▁loyal	-12.3119
▁20-25	-12.3121
▁Mind	-12.3121
▁bummer	-12.3129
▁tatty	-12.3129
loved	-12.313
▁spotted	-12.3135
American	-12.3137
▁Beijing	-12.3138
▁Coliseum	-12.3138
▁captain	-12.3138
bell	-12.3139
▁divided	-12.314
▁Yeah	-12.3141
-3	-12.3144
▁Horizon	-12.3147
▁granola	-12.3147
▁bingo	-12.3147
▁veggies	-12.3149
▁Centrally	-12.3154
▁conventions	-12.3155
put	-12.3158
▁adorable	-12.3165
▁northern	-12.3165
▁observed	-12.3168
▁safes	-12.317
▁Literally	-12.3174
▁stack	-12.3175
▁Above	-12.3176
py	-12.3178
▁Visited	-12.3178
!!!!!!!!!!!!!!!!	-12.3178
▁sensor	-12.3179
▁Furniture	-12.3183
rent	-12.3184
ral	-12.3186
▁Non	-12.3188
filled	-12.3189
ely	-12.3195
▁toured	-12.3198
▁bellagio	-12.3202
▁Loop	-12.3203
▁contains	-12.3203
▁nibbles	-12.3203
fruit	-12.3207
nal	-12.3208
▁pie	-12.3211
▁Xmas	-12.3211
▁sliced	-12.3212
▁Trail	-12.3212
ium	-12.3213
▁compete	-12.3213
4)	-12.3216
▁reaching	-12.3216
▁snob	-12.3218
▁broadway	-12.322
▁Horton	-12.3221
▁continuously	-12.3222
▁ranked	-12.3226
▁campus	-12.323
▁director	-12.3234
▁advertises	-12.3234
▁individually	-12.3239
▁bins	-12.3241
▁HKD	-12.3242
▁faulted	-12.3246
▁government	-12.3248
please	-12.3248
▁Freemont	-12.3248
such	-12.3249
▁Peters	-12.325
▁Everywhere	-12.3251
▁uses	-12.3253
▁europe	-12.3254
▁Fishermans	-12.3255
▁energetic	-12.3257
▁HOWEVER	-12.3257
▁Ve	-12.3262
▁certificate	-12.3262
▁hockey	-12.3266
tes	-12.3266
▁teenager	-12.3267
▁Caracol	-12.3276
▁Corner	-12.3277
▁sunlight	-12.3279
▁Camp	-12.328
▁hosted	-12.328
▁>	-12.3284
▁FL	-12.3289
▁opener	-12.329
▁classical	-12.33
▁101	-12.3301
taxi	-12.3303
az	-12.3307
ans	-12.3312
▁countertops	-12.3313
▁awoken	-12.3315
▁switching	-12.3315
▁ramblas	-12.3315
▁rugs	-12.3319
▁coaster	-12.3324
▁awoke	-12.3325
▁Hut	-12.3326
▁Lux	-12.3328
upgrade	-12.333
▁Incredible	-12.3332
▁pin	-12.3334
£1	-12.3335
▁sterile	-12.3341
▁pat	-12.3342
▁Ar	-12.3343
▁Au	-12.335
▁Financial	-12.335
▁neglected	-12.3351
▁travelodge	-12.3359
▁aswell	-12.336
EL	-12.336
▁burns	-12.3361
75	-12.3361
23	-12.3362
LA	-12.3362
▁Oscar	-12.3365
BR	-12.3365
▁becuase	-12.3369
▁gloomy	-12.3369
▁wishes	-12.3369
▁2000	-12.3372
▁cos	-12.3372
▁alike	-12.3373
▁reflected	-12.3374
▁refresh	-12.3378
▁WITH	-12.3378
▁Ranch	-12.3378
▁excelent	-12.3379
▁cement	-12.3379
▁restraunts	-12.338
ses	-12.3382
▁bubble	-12.3384
▁attitudes	-12.3384
tive	-12.3386
look	-12.3386
▁threadbare	-12.3387
▁mixture	-12.3388
▁Rican	-12.3388
od	-12.3391
-20	-12.3393
▁Cant	-12.3394
▁someday	-12.3394
THE	-12.3395
tan	-12.3396
▁wires	-12.3396
▁Further	-12.3397
▁oriental	-12.3398
▁Des	-12.3409
▁exec	-12.341
▁Nicely	-12.3411
▁Request	-12.3412
Nice	-12.3415
▁organic	-12.3416
▁quote	-12.3417
▁Covent	-12.3417
▁8.30	-12.3418
▁(3)	-12.342
▁Mallory	-12.3425
▁En	-12.3428
superior	-12.343
white	-12.3431
Star	-12.3432
▁amusing	-12.3438
▁progress	-12.344
▁Disturb	-12.3444
▁Regardless	-12.3444
”.	-12.3447
TMd	-12.3449
▁$20/	-12.3451
▁grew	-12.3453
▁avoiding	-12.3455
▁Tsim	-12.3463
tle	-12.3466
literally	-12.3468
▁PA	-12.3469
▁award	-12.347
▁Accademia	-12.3472
▁adventurous	-12.3472
▁superbly	-12.3475
▁insane	-12.348
▁Mrs	-12.348
▁greater	-12.348
▁burning	-12.348
▁gallery	-12.3482
▁Reasonable	-12.3482
▁Shame	-12.3484
pay	-12.3484
▁midday	-12.3484
▁verify	-12.3486
▁finishes	-12.3486
▁recommed	-12.3488
▁Brooklyn	-12.3491
▁pampering	-12.3493
ced	-12.3497
▁fares	-12.3499
▁facelift	-12.3501
▁flaw	-12.3502
Some	-12.3502
▁gamblers	-12.3503
▁Ja	-12.3503
▁Arena	-12.3507
▁rustic	-12.3508
▁luggages	-12.3508
unlike	-12.3508
going	-12.351
▁opinions	-12.351
▁Newbury	-12.3511
▁reviewing	-12.3513
▁lei	-12.3521
▁uptown	-12.3522
▁hail	-12.3523
▁Max	-12.3524
▁devices	-12.3525
fun	-12.3525
▁stairwell	-12.3527
▁Jardin	-12.3529
▁9.30	-12.3531
▁Master	-12.3532
plenty	-12.3534
▁died	-12.3537
▁bicycles	-12.3539
▁decorating	-12.3542
▁breaks	-12.3544
▁packet	-12.3547
▁ultimately	-12.355
▁screw	-12.3551
▁polo	-12.3552
▁rains	-12.3553
▁Robert	-12.3557
▁15%	-12.3557
▁optional	-12.3559
▁dear	-12.3563
▁MI	-12.3567
▁amusement	-12.3567
▁Mostly	-12.3568
cy	-12.357
▁Foods	-12.3575
▁Sound	-12.3577
▁Rosa	-12.3585
ently	-12.3586
▁WORST	-12.3586
cost	-12.3589
▁Checkin	-12.3593
rant	-12.3595
ris	-12.3595
▁Valentine	-12.3599
▁speciality	-12.3599
shops	-12.3601
▁cha	-12.3603
▁Bur	-12.3604
▁spartan	-12.3605
▁Buena	-12.3605
▁radius	-12.3605
▁tranquility	-12.3606
▁Charming	-12.3607
▁unfair	-12.3607
▁assorted	-12.3615
▁Target	-12.3615
▁caribbean	-12.3615
El	-12.3617
towels	-12.3617
▁1/4	-12.3619
▁Roy	-12.3622
▁ottoman	-12.3624
▁depend	-12.3625
▁valued	-12.3626
els	-12.3629
▁Ali	-12.3631
▁uneven	-12.3631
▁focused	-12.3641
▁occassions	-12.3642
▁Francis	-12.3643
▁venetian	-12.3644
▁produced	-12.3644
▁revisit	-12.3644
ving	-12.3644
ula	-12.3645
ole	-12.3645
amazing	-12.3649
▁Relais	-12.3653
▁Jolla	-12.3653
▁RESORT	-12.3654
▁Waterfront	-12.3654
▁antiques	-12.366
▁itinerary	-12.3663
▁unobtrusive	-12.3663
▁jetted	-12.3664
ect	-12.3665
▁crown	-12.3665
▁iPad	-12.3673
▁wrist	-12.3673
▁tomatoes	-12.3673
▁ribs	-12.3675
show	-12.3675
life	-12.3677
▁strict	-12.3681
▁vintage	-12.3682
▁starters	-12.3691
▁fewer	-12.3696
▁Va	-12.3699
▁Depend	-12.3702
▁Southernmost	-12.3702
▁mask	-12.3703
▁beg	-12.3705
▁posting	-12.3706
▁Indy	-12.3709
▁university	-12.3711
▁stink	-12.3713
▁envelope	-12.3719
▁Table	-12.372
▁7)	-12.372
▁convienent	-12.3721
▁hunt	-12.3723
▁scare	-12.3725
▁packets	-12.3733
cafe	-12.3734
▁ro	-12.374
▁DEFINITELY	-12.374
▁Simple	-12.374
▁Cup	-12.3747
laws	-12.375
▁fills	-12.375
▁ranged	-12.3751
▁WC	-12.3752
▁Beer	-12.3753
▁prostitutes	-12.3754
▁swear	-12.3756
▁Flamenco	-12.376
▁barefoot	-12.376
▁Cleaning	-12.376
mel	-12.3761
InterContinental	-12.3761
bring	-12.3763
▁sl	-12.3765
▁Z	-12.3765
▁smoothies	-12.3767
▁Banyan	-12.3769
▁upkeep	-12.3769
▁Stop	-12.377
▁painful	-12.3771
usually	-12.3772
▁scratched	-12.3773
dated	-12.3776
▁Elysee	-12.3778
▁unreasonable	-12.3779
wall	-12.378
▁ledge	-12.378
▁curt	-12.3781
▁yelled	-12.3782
und	-12.3784
▁lunchtime	-12.3786
▁hazard	-12.3788
FI	-12.3797
▁congested	-12.3799
▁refills	-12.3799
▁OUT	-12.38
▁worrying	-12.3802
▁shoot	-12.3804
▁irritated	-12.3809
▁Ba	-12.381
▁overhaul	-12.381
▁fallen	-12.3811
▁lining	-12.3811
▁intention	-12.3813
▁ponds	-12.3813
value	-12.3814
▁softer	-12.3816
▁Feel	-12.3816
▁hilarious	-12.3818
▁Azteca	-12.3818
ear	-12.3819
bb	-12.3822
manager	-12.3824
▁Talk	-12.3824
▁disinterested	-12.3828
▁600	-12.3829
▁Tai	-12.3831
▁reset	-12.3831
▁desperately	-12.3833
▁argument	-12.3837
play	-12.384
▁outweigh	-12.3843
▁overcharged	-12.3844
▁Seemed	-12.3848
▁tears	-12.3849
ique	-12.3853
▁Laundry	-12.3857
▁elaborate	-12.3857
▁Petco	-12.3857
▁developed	-12.3859
▁organise	-12.386
▁excess	-12.3862
ient	-12.3863
▁Aston	-12.3865
▁touching	-12.3866
▁52	-12.3866
▁Nearby	-12.3868
▁perfume	-12.387
ose	-12.3871
▁mild	-12.3874
▁Skip	-12.3875
▁advising	-12.3877
▁192	-12.3879
qu	-12.3885
▁Palladium	-12.3887
▁sleeps	-12.3891
▁colored	-12.3893
▁survey	-12.3897
▁Eggs	-12.3897
▁Marble	-12.3898
▁sockets	-12.3905
▁elegantly	-12.3905
▁Dorado	-12.3907
.25	-12.391
▁lucked	-12.3911
▁Wasn	-12.3913
ena	-12.3914
▁magazine	-12.3916
▁Bldg	-12.3916
▁suck	-12.3917
▁housed	-12.3918
val	-12.393
ot	-12.3934
mailed	-12.3935
▁Yacht	-12.3936
▁accent	-12.3936
▁Elevator	-12.3937
▁filter	-12.3938
▁bellhops	-12.394
▁Chose	-12.3942
▁princess	-12.3946
▁Contemporary	-12.3946
▁sealed	-12.3952
hole	-12.3953
28	-12.3953
▁freely	-12.3953
▁electronics	-12.3955
rm	-12.3956
▁breaker	-12.3958
▁Warm	-12.3959
▁peep	-12.396
!!).	-12.3962
▁bearable	-12.3967
...).	-12.3971
▁51	-12.3971
03	-12.3971
▁organization	-12.3976
▁junk	-12.3977
▁stole	-12.3977
▁pictured	-12.3978
/24	-12.3979
▁Looks	-12.3983
▁promises	-12.3986
party	-12.3987
▁Albert	-12.3987
▁iPhone	-12.3987
▁physically	-12.3989
▁CAN	-12.3995
▁tee	-12.3996
▁applied	-12.3996
▁Thus	-12.3996
▁Marketplace	-12.3997
▁spas	-12.3997
▁que	-12.3999
▁documents	-12.4
reception	-12.4004
▁Ri	-12.4005
ugh	-12.4007
▁encouraged	-12.4008
▁everynight	-12.4009
welcome	-12.4011
lia	-12.4015
▁damn	-12.4016
Mart	-12.4025
▁Colonial	-12.4026
▁placing	-12.4026
▁na	-12.4029
▁interiors	-12.4029
iz	-12.4031
▁hearty	-12.4034
eries	-12.4035
▁Walt	-12.4038
▁floats	-12.4038
▁china	-12.4038
▁vi	-12.4041
July	-12.4042
▁shoulder	-12.4045
▁blank	-12.4046
▁alert	-12.4046
▁Regent	-12.4047
▁shining	-12.4047
▁cheery	-12.4047
ray	-12.4052
mark	-12.4057
zz	-12.4064
being	-12.4066
▁Conquistador	-12.4066
▁12:00	-12.4068
▁humor	-12.4073
Can	-12.408
inclusives	-12.408
▁cope	-12.408
ture	-12.408
▁incompetent	-12.4082
▁Hu	-12.4083
▁Magnolia	-12.4086
▁Everybody	-12.4086
▁cheaply	-12.4088
▁drilling	-12.4088
ours	-12.4093
/4	-12.4095
▁TWO	-12.4096
▁indication	-12.4096
SE	-12.41
before	-12.4102
last	-12.4104
▁Cor	-12.4105
any	-12.411
▁Em	-12.4112
▁pockets	-12.4113
▁longest	-12.4115
lla	-12.4115
gin	-12.4115
▁HBO	-12.4116
dam	-12.4119
▁unload	-12.4119
▁Visit	-12.4122
▁wasting	-12.4122
▁draft	-12.4124
▁rod	-12.4127
▁margarita	-12.4127
▁bearings	-12.4127
ari	-12.4135
▁creating	-12.4136
▁Surprisingly	-12.4137
▁exhaust	-12.4137
▁Calle	-12.4138
▁consisting	-12.4138
▁parent	-12.414
▁Ke	-12.4145
▁medicine	-12.4146
▁disadvantage	-12.4147
▁beachside	-12.4148
▁knob	-12.4148
▁lime	-12.4148
thin	-12.415
▁Door	-12.4159
▁sooooo	-12.4159
▁july	-12.416
▁BED	-12.4162
pen	-12.4164
▁pretend	-12.4164
▁Southern	-12.4167
▁jammed	-12.4167
▁shiny	-12.4167
▁gr	-12.4174
▁Wild	-12.4174
▁Chrysler	-12.4177
▁Nikko	-12.4177
ail	-12.4178
▁reluctantly	-12.418
▁Rum	-12.4184
▁nightclubs	-12.4187
▁Package	-12.4188
▁ST	-12.4194
▁flops	-12.4197
▁stranded	-12.4197
▁blaring	-12.4197
▁sha	-12.42
▁Petit	-12.4204
▁tradition	-12.4206
▁Donatello	-12.4207
▁Vecchio	-12.4207
▁Put	-12.4207
▁knee	-12.4214
▁scented	-12.4214
▁Carnival	-12.4217
▁jeans	-12.4217
▁Outback	-12.4218
▁Ste	-12.4218
▁OMG	-12.4228
▁Fab	-12.4231
Con	-12.4232
▁Emirates	-12.4238
▁Tsui	-12.4238
▁differ	-12.4239
▁salty	-12.4244
▁Ireland	-12.4248
EST	-12.4248
▁cruises	-12.4249
▁wire	-12.4252
▁Mont	-12.4257
▁confirming	-12.4257
▁august	-12.4258
▁Nespresso	-12.4258
▁Cal	-12.4259
▁faults	-12.4262
mal	-12.4263
▁spec	-12.4264
▁Michel	-12.4265
ix	-12.4266
gs	-12.427
having	-12.4271
▁Stars	-12.4272
nia	-12.4275
65	-12.4276
▁Delicious	-12.4279
▁depth	-12.4279
taking	-12.4282
▁vomit	-12.4282
▁everthing	-12.4283
▁Fe	-12.4286
vin	-12.4287
▁Elizabeth	-12.4289
▁appreciative	-12.4289
▁brisk	-12.4289
▁galore	-12.4289
▁MANY	-12.4289
▁Member	-12.4291
▁ATV	-12.4291
▁pic	-12.4292
▁hash	-12.4296
▁mystery	-12.4299
done	-12.4301
▁socket	-12.4301
▁pounding	-12.4304
Thanks	-12.4306
▁Regard	-12.4311
▁manners	-12.4314
.15	-12.4319
▁Mu	-12.4319
▁Fo	-12.4319
across	-12.4325
▁mouldy	-12.4325
▁pig	-12.4328
▁Metropolitan	-12.433
▁Costco	-12.433
round	-12.4331
▁bumpy	-12.4332
ship	-12.4332
warm	-12.4334
ob	-12.4339
▁strawberry	-12.434
▁Temple	-12.4341
▁dec	-12.4341
▁Elite	-12.4342
▁ears	-12.4344
"...	-12.4345
▁messy	-12.4347
▁outrageously	-12.4348
▁Under	-12.4353
▁procedure	-12.4353
▁3-5	-12.4353
▁indicate	-12.4356
▁tail	-12.4357
▁ple	-12.4357
▁Lot	-12.4357
▁staring	-12.4358
garden	-12.436
▁180	-12.4366
▁sc	-12.4368
bra	-12.437
▁dominican	-12.4371
▁$130	-12.4372
▁café	-12.4374
▁boasts	-12.4374
▁darn	-12.4375
▁enhanced	-12.4375
▁attempting	-12.4377
▁prefered	-12.4378
▁Islands	-12.438
▁faulty	-12.438
▁pavement	-12.4381
▁pedicure	-12.4382
▁dome	-12.4386
▁drains	-12.4395
▁insect	-12.4395
▁homework	-12.4397
▁SMALL	-12.4399
▁upfront	-12.4399
▁saver	-12.4406
nite	-12.4406
▁BA	-12.4407
vy	-12.4408
▁hooks	-12.441
▁marvellous	-12.4412
▁glamorous	-12.4413
▁refrig	-12.4413
▁landmark	-12.4416
morning	-12.4418
▁Sign	-12.4426
AN	-12.4431
▁chap	-12.4433
▁snooty	-12.4434
▁90%	-12.4434
▁Tons	-12.4436
▁Buses	-12.4438
▁Google	-12.4444
▁Checkout	-12.4446
▁biggie	-12.4447
▁currency	-12.4454
▁replenish	-12.4456
▁complains	-12.4457
3)	-12.4458
complimentary	-12.446
within	-12.4465
▁Arrival	-12.4465
▁timeshares	-12.4467
▁homely	-12.4472
▁preparation	-12.4475
▁struggling	-12.4475
▁Hospital	-12.4475
▁users	-12.4477
▁Six	-12.448
gate	-12.448
ala	-12.4481
shirt	-12.4484
▁4/5	-12.4487
▁SFO	-12.4488
▁jr	-12.4488
▁sexy	-12.4488
▁restrooms	-12.4493
▁palms	-12.4494
▁BC	-12.4498
▁interacted	-12.4499
TA	-12.4502
▁distinct	-12.4506
/06	-12.4509
▁Finding	-12.4509
100	-12.4513
▁shake	-12.4515
▁adventures	-12.4515
eggs	-12.4516
▁Oasis	-12.4517
▁safari	-12.4517
▁Cook	-12.4517
Euro	-12.4517
▁approachable	-12.4518
▁Bear	-12.4519
▁pump	-12.452
three	-12.4527
▁deceiving	-12.4527
▁Changi	-12.4531
▁Nazionale	-12.4538
▁NICE	-12.4538
▁FAR	-12.454
▁j	-12.4541
▁naturally	-12.4541
rain	-12.4541
cream	-12.4543
▁concerning	-12.4545
▁peeve	-12.4546
▁vegetation	-12.4548
tip	-12.455
tour	-12.4551
▁LOTS	-12.4552
▁($5	-12.4553
▁commend	-12.4556
gen	-12.456
▁1/3	-12.4562
▁gripes	-12.4563
tting	-12.4563
Ro	-12.4565
eye	-12.4565
▁slick	-12.457
29	-12.4571
▁Bayside	-12.4576
▁exc	-12.4577
▁flamingos	-12.4578
27	-12.4579
▁Life	-12.4581
▁admittedly	-12.4584
▁peek	-12.4587
Lo	-12.4589
▁exceedingly	-12.4591
pass	-12.4591
▁dolphin	-12.4594
▁arrives	-12.4597
▁incidentals	-12.4597
oni	-12.4598
▁alongside	-12.4603
▁Nu	-12.4605
▁punch	-12.4605
internet	-12.4607
cation	-12.4607
nder	-12.4611
▁Class	-12.4611
▁Accor	-12.4612
ENT	-12.4615
▁aqua	-12.4616
▁determined	-12.4617
▁begins	-12.4622
▁Fiori	-12.4622
▁Swan	-12.4623
▁parrots	-12.4626
aid	-12.4628
oriented	-12.4628
little	-12.463
▁pits	-12.4632
▁peacocks	-12.4632
▁shy	-12.4636
▁tissues	-12.4638
▁linked	-12.464
▁deter	-12.4641
▁sh	-12.4643
▁dreary	-12.4643
▁lemonade	-12.4644
▁nut	-12.4645
▁argued	-12.4647
▁signing	-12.4648
ea	-12.4648
albeit	-12.465
▁criteria	-12.4654
▁Ann	-12.4655
along	-12.4658
▁ritz	-12.4663
▁$350	-12.4665
▁crime	-12.4665
▁Anyways	-12.4665
▁greenery	-12.4666
▁favorable	-12.4667
oe	-12.4673
▁defiantly	-12.4675
▁facilites	-12.4675
▁plant	-12.468
▁expenses	-12.468
▁grandson	-12.4682
▁SUPER	-12.4682
▁ensur	-12.4689
▁$125	-12.4689
▁nit	-12.4692
▁Week	-12.4692
▁architectural	-12.4694
▁habit	-12.4695
pers	-12.4696
▁FROM	-12.4697
▁existent	-12.4698
▁Sundays	-12.47
▁6.30	-12.4701
▁sip	-12.4707
▁definitley	-12.4707
▁varieties	-12.4707
▁awaiting	-12.4708
▁belong	-12.471
▁occur	-12.471
▁***	-12.4711
sure	-12.4711
teen	-12.4711
▁cinema	-12.4712
▁overcooked	-12.4713
▁pint	-12.4715
▁increased	-12.4717
▁Antonio	-12.4718
▁drying	-12.4718
kind	-12.4725
▁brighter	-12.4725
pan	-12.4728
▁Shinjuku	-12.4729
▁lifeguards	-12.4729
▁Mayfair	-12.4729
▁MA	-12.4731
▁gu	-12.4732
▁Mai	-12.4733
took	-12.4737
ified	-12.4737
▁Kihei	-12.474
▁nephew	-12.474
..........	-12.474
▁speaker	-12.4741
shop	-12.4742
▁Ontario	-12.475
▁Terrific	-12.475
▁ghost	-12.475
▁amenties	-12.475
▁Konak	-12.4751
▁Everytime	-12.4754
▁54	-12.4757
▁target	-12.476
▁TIME	-12.4761
▁exchanged	-12.4761
▁Orchid	-12.4761
▁chlorine	-12.4761
▁redeeming	-12.4763
▁unlocked	-12.4764
▁dr	-12.4765
▁appartment	-12.4766
▁traps	-12.4771
▁Sunwing	-12.4772
▁popped	-12.4772
▁veg	-12.4773
:-	-12.4774
▁05	-12.4776
▁layer	-12.4779
▁shells	-12.4783
ib	-12.4783
▁ratio	-12.4786
queen	-12.479
▁performers	-12.4791
▁Thomson	-12.4793
▁dissapointment	-12.4793
▁Bakery	-12.4794
than	-12.4795
zing	-12.4796
▁injury	-12.4804
▁precious	-12.4805
▁CHECK	-12.4805
▁mill	-12.4806
▁afforded	-12.4808
▁cenote	-12.4809
▁Reservations	-12.481
▁Parks	-12.481
particularly	-12.481
ried	-12.4813
▁Children	-12.4815
▁abound	-12.4815
▁harsh	-12.4815
ride	-12.4815
▁57	-12.4819
▁$600	-12.4819
▁resulting	-12.482
▁Embarcadero	-12.4826
AD	-12.4827
▁chi	-12.4832
▁plaster	-12.4833
Po	-12.4835
ration	-12.4836
▁Kodak	-12.4837
▁absence	-12.4837
▁History	-12.4837
▁exiting	-12.4841
▁trolleys	-12.4841
thing	-12.4844
▁Captain	-12.4848
▁wipe	-12.485
▁Disco	-12.4854
ake	-12.4855
▁Ten	-12.4857
▁Vaporetto	-12.4858
▁closeby	-12.4859
▁disgrace	-12.4861
▁Pina	-12.4861
story	-12.4863
▁kudos	-12.4869
▁advantages	-12.487
▁counted	-12.4874
hip	-12.4874
▁upbeat	-12.4879
▁TLC	-12.488
ground	-12.4883
CH	-12.4891
del	-12.4892
▁Lucky	-12.4892
▁para	-12.4898
▁CO	-12.4899
▁kingsize	-12.49
▁craps	-12.4901
▁understatement	-12.4902
▁Bayswater	-12.4902
▁flair	-12.4903
▁hitch	-12.4909
vacation	-12.4909
▁discreet	-12.491
▁untill	-12.4912
▁outskirts	-12.4913
▁google	-12.4913
▁95	-12.4914
lay	-12.4919
shampoo	-12.4919
▁Beyond	-12.4924
▁empire	-12.4924
▁DAY	-12.4924
▁30-40	-12.4925
▁Few	-12.4928
▁marketing	-12.4928
ach	-12.4929
▁Arch	-12.4929
▁license	-12.4934
▁HAD	-12.4935
▁manned	-12.4937
▁curb	-12.4938
▁apologised	-12.4939
/05	-12.494
▁(?)	-12.4941
▁Problem	-12.4941
▁Wait	-12.4944
▁Olive	-12.4945
茅	-12.4945
▁pizzeria	-12.4946
▁Crystal	-12.4952
ser	-12.4952
▁ranking	-12.4954
una	-12.4956
▁hotter	-12.4959
ji	-12.496
▁bracelet	-12.4963
sometimes	-12.4963
▁escort	-12.4964
▁abrupt	-12.4965
▁lil	-12.4967
▁feast	-12.4967
▁$29	-12.4969
▁Secret	-12.4975
▁behalf	-12.4977
▁nonsmoking	-12.4978
▁floral	-12.498
act	-12.498
▁adjustable	-12.498
fo	-12.4983
▁exhibition	-12.4991
▁Uffizi	-12.5
▁boulevard	-12.5
▁separating	-12.5
▁hefty	-12.5
▁Mountain	-12.5002
▁protected	-12.5004
▁Post	-12.5005
fa	-12.5006
▁turtle	-12.5007
▁eclectic	-12.5011
▁rectify	-12.5011
▁infront	-12.5012
▁Quarters	-12.5012
▁sunken	-12.5012
▁centers	-12.5013
▁Hey	-12.5015
▁colder	-12.5015
pretty	-12.5018
fl	-12.5019
▁credited	-12.502
▁Casablanca	-12.5022
mm	-12.5024
▁greated	-12.5025
▁interstate	-12.5033
▁GBP	-12.5035
▁Wan	-12.5035
▁sightsee	-12.5036
juice	-12.504
▁aunt	-12.504
▁refrigerators	-12.5041
▁raved	-12.5042
mile	-12.5042
▁military	-12.5044
▁Major	-12.5044
▁sandals	-12.5045
▁Olina	-12.5045
▁seal	-12.5046
valet	-12.5047
▁Seaside	-12.5047
▁crossed	-12.5049
▁discussed	-12.505
▁indian	-12.5051
SS	-12.5054
Mar	-12.5054
▁Marquis	-12.5055
▁inedible	-12.5056
▁movement	-12.5057
▁cheerfully	-12.5058
ute	-12.5059
▁roast	-12.5059
1)	-12.506
▁handles	-12.5061
Excellent	-12.5062
working	-12.5063
▁sleepless	-12.5066
▁cautious	-12.5067
-25	-12.5077
▁engaging	-12.5078
▁pricier	-12.5078
pot	-12.5083
▁km	-12.5083
▁urge	-12.5087
carte	-12.5088
highly	-12.509
▁......	-12.509
▁purchases	-12.5091
▁fulfilled	-12.5091
rn	-12.5091
rio	-12.5093
Mexican	-12.5095
▁hose	-12.5096
▁60'	-12.5097
Now	-12.5098
▁suspicious	-12.51
▁Chicken	-12.51
▁connectivity	-12.51
▁development	-12.51
▁Coconut	-12.5101
▁swanky	-12.5101
wn	-12.5101
▁commute	-12.5102
▁ornate	-12.5102
▁hits	-12.5108
▁follows	-12.5111
▁Bose	-12.5113
▁hottub	-12.5113
▁nail	-12.5116
▁swans	-12.5117
▁canned	-12.5119
▁seminar	-12.5122
▁surgery	-12.5122
▁sweeping	-12.5124
ack	-12.5125
??)	-12.5125
ung	-12.5126
▁Café	-12.5133
▁bump	-12.5133
▁estate	-12.5134
▁elite	-12.5134
▁chase	-12.5135
▁convince	-12.5137
▁sur	-12.5138
▁respects	-12.5141
▁Tra	-12.5143
oz	-12.5143
▁technician	-12.5144
▁carribean	-12.5145
▁BO	-12.5147
▁br	-12.515
▁ignorant	-12.5156
▁Regina	-12.5156
▁Summary	-12.5156
▁Highway	-12.5157
ending	-12.516
private	-12.5163
▁($10	-12.5166
▁Indeed	-12.5167
▁beatiful	-12.5167
▁aircraft	-12.5168
▁Bel	-12.5169
▁sticks	-12.517
elli	-12.5171
▁flooding	-12.5172
▁$140	-12.5173
▁protect	-12.5173
▁Frankly	-12.5174
met	-12.5177
▁shrugged	-12.5178
▁scratch	-12.5179
▁decorative	-12.518
making	-12.5182
bel	-12.5182
▁twist	-12.5185
▁acts	-12.5185
▁Jim	-12.5187
▁Ä	-12.5189
ability	-12.519
name	-12.5193
▁successful	-12.5193
▁Eastern	-12.5194
▁outer	-12.5195
▁viewed	-12.5196
four	-12.5197
half	-12.5198
aka	-12.5207
huge	-12.5208
tta	-12.5208
▁mature	-12.5208
▁ranks	-12.5209
▁unwilling	-12.5212
▁informing	-12.5212
▁selecting	-12.5214
Grand	-12.5216
▁Polynesian	-12.5223
▁restricted	-12.5224
▁46	-12.5231
▁Parker	-12.5233
▁cont	-12.5234
▁tied	-12.5235
▁airfare	-12.5236
▁Za	-12.5238
▁scooter	-12.5243
▁requiring	-12.5245
field	-12.5247
ceiling	-12.5252
▁enthusiasm	-12.5257
▁hassles	-12.5259
▁behold	-12.5261
▁lighter	-12.5261
tail	-12.5264
▁Minor	-12.5265
▁breathe	-12.5271
▁Fountains	-12.5273
▁Fajardo	-12.5279
▁Handlery	-12.5279
▁comforting	-12.528
▁ballroom	-12.5281
▁Want	-12.5283
rrow	-12.5285
happy	-12.5286
▁youngest	-12.5288
wonderful	-12.529
▁Hertz	-12.5291
▁clueless	-12.5292
▁refurbishing	-12.5292
▁si	-12.5292
▁nighttime	-12.5297
▁thousand	-12.5299
uring	-12.5299
▁dimly	-12.5299
pping	-12.5301
stars	-12.5301
▁Maintenance	-12.5302
▁Ver	-12.5306
▁sideways	-12.5306
▁delivering	-12.5309
▁fl	-12.5309
cr	-12.531
tz	-12.5311
▁horrid	-12.5313
▁luxuries	-12.5313
▁Fort	-12.5317
▁effectively	-12.532
▁filth	-12.5322
▁Ge	-12.5323
Even	-12.5324
▁Pointe	-12.5324
▁Ed	-12.5324
▁alarms	-12.5327
▁shack	-12.5327
€”	-12.5329
lip	-12.5329
▁$23	-12.5332
▁bull	-12.5333
▁prop	-12.5335
ien	-12.5335
▁Nonetheless	-12.5336
▁Elvis	-12.5337
▁waived	-12.534
▁$89	-12.534
IA	-12.534
▁Final	-12.5344
▁€1	-12.5346
▁Pres	-12.5352
▁interact	-12.5355
▁appreciation	-12.5359
▁worlds	-12.5359
▁unknown	-12.5359
▁$15.00	-12.536
▁stinky	-12.5362
▁represented	-12.5362
▁Highland	-12.5372
▁Everyday	-12.5374
▁neighbour	-12.5374
▁clo	-12.538
▁Laguna	-12.5382
▁silence	-12.5382
▁obtained	-12.5387
▁usable	-12.5388
gle	-12.539
▁Eric	-12.5392
istic	-12.5395
▁slightest	-12.5395
▁strictly	-12.5396
▁functions	-12.5396
▁Gra	-12.5397
▁compromise	-12.5398
▁Spotless	-12.54
▁goodbye	-12.5403
▁syrup	-12.5405
▁99	-12.5407
▁monitor	-12.5409
▁8-10	-12.541
▁Alexis	-12.5417
▁gotta	-12.5418
▁gambler	-12.5418
▁boiling	-12.5419
▁temps	-12.542
▁contributed	-12.542
▁excellently	-12.5424
▁issued	-12.5425
▁Men	-12.5427
▁bazaar	-12.5428
▁exemplary	-12.5428
▁meticulously	-12.5429
▁talented	-12.543
▁thanked	-12.5432
UR	-12.5432
▁Mart	-12.5433
▁proceed	-12.5435
far	-12.5436
ways	-12.5437
▁planner	-12.5437
▁Sp	-12.5438
▁coz	-12.5438
▁caveat	-12.544
▁Cold	-12.5441
▁lip	-12.5441
dia	-12.5444
▁restraunt	-12.5448
ying	-12.545
▁Indigo	-12.5451
▁gaslamp	-12.5451
▁Jordan	-12.5451
▁scaffolding	-12.5451
▁50'	-12.5452
las	-12.5455
▁Low	-12.5457
Club	-12.5458
break	-12.5459
▁vendor	-12.546
▁bbq	-12.5462
▁au	-12.5465
outdoor	-12.5466
▁toliet	-12.5466
▁stronger	-12.5467
▁Along	-12.5469
▁trolly	-12.5474
▁tire	-12.5474
▁$85	-12.5477
ising	-12.5478
▁maintaining	-12.5482
nna	-12.5482
apart	-12.5483
AC	-12.5485
▁Cheers	-12.5487
▁contain	-12.5488
▁GET	-12.5489
▁Musee	-12.549
32	-12.549
▁latte	-12.5495
▁promo	-12.5496
▁hindsight	-12.5497
▁salami	-12.5497
500	-12.5497
rock	-12.5497
▁lick	-12.5503
▁quibble	-12.5507
▁25%	-12.5508
▁absolutly	-12.5508
▁inconsiderate	-12.5508
▁SUV	-12.5508
▁forms	-12.551
▁exceptions	-12.5514
▁bloody	-12.5516
beer	-12.5519
▁Felix	-12.552
▁Sandals	-12.552
▁auto	-12.5521
wed	-12.553
▁bargains	-12.5531
▁convienient	-12.5531
▁imagination	-12.5531
▁disorganized	-12.5531
▁Budget	-12.5532
▁neutral	-12.5532
▁deserts	-12.5532
▁Surf	-12.5533
▁OFF	-12.5534
▁Reve	-12.5537
▁Balinese	-12.5543
▁NIGHT	-12.5544
▁marriott	-12.5546
fall	-12.5547
▁atleast	-12.5547
▁47	-12.555
mic	-12.5551
ace	-12.5551
▁ce	-12.5553
▁Leidseplein	-12.5555
▁Unbelievable	-12.5555
▁Deuce	-12.5555
case	-12.5555
boy	-12.5558
.............	-12.5558
▁photographs	-12.5563
▁tuna	-12.5563
▁veranda	-12.5566
▁scrub	-12.5566
▁Portofino	-12.5567
▁Jesus	-12.5567
▁lend	-12.5569
▁Tv	-12.5569
▁African	-12.557
stand	-12.5575
▁Fame	-12.5575
▁Brandenburg	-12.5577
▁canopy	-12.5578
▁transaction	-12.5578
▁Breezes	-12.5583
200	-12.5587
▁$21	-12.5589
▁Andrea	-12.559
▁repellent	-12.559
▁FABULOUS	-12.559
▁Indonesian	-12.559
▁Ruth	-12.5595
▁exhibit	-12.5595
▁cycle	-12.5596
▁Reading	-12.5597
▁Included	-12.5601
€¢	-12.5602
▁AVOID	-12.5602
▁abandoned	-12.5602
▁5.30	-12.5603
▁ka	-12.5607
cons	-12.561
▁backyard	-12.5612
▁rushing	-12.5614
French	-12.562
Mo	-12.5621
▁Ser	-12.5623
▁promotional	-12.5626
need	-12.5634
▁Been	-12.5635
▁Ground	-12.5636
▁bra	-12.5636
▁Amtrak	-12.5636
5)	-12.5637
1.	-12.5637
▁Won	-12.564
ila	-12.5646
▁browns	-12.5646
▁Cavour	-12.5648
▁Oak	-12.5648
▁$1.50	-12.565
▁$27	-12.5651
▁surfaces	-12.5652
▁homes	-12.5655
here	-12.5655
definitely	-12.5656
/7	-12.5659
▁Duke	-12.5661
▁keycard	-12.5661
▁spilled	-12.5662
ult	-12.5662
ges	-12.5665
▁intimidating	-12.5672
▁hammering	-12.5673
▁pages	-12.5674
▁rays	-12.5674
▁Marriotts	-12.5676
June	-12.5679
▁arent	-12.5681
▁Lafayette	-12.5684
▁snobby	-12.5684
▁intense	-12.5684
▁petty	-12.5685
▁Dan	-12.5685
rri	-12.5685
▁eastern	-12.5686
▁BW	-12.5687
▁outgoing	-12.5688
▁inconveniences	-12.5689
▁Wave	-12.5691
oon	-12.5691
▁Jane	-12.5691
▁introduction	-12.5695
▁naked	-12.5695
▁lotions	-12.5696
▁Russian	-12.5696
▁Ac	-12.5696
▁mats	-12.5696
/09	-12.5701
▁Asiana	-12.5704
▁seamless	-12.5705
▁runway	-12.5706
▁indicating	-12.5707
▁serenity	-12.5707
▁Gu	-12.5708
▁yourselves	-12.571
stayed	-12.5711
▁sincerely	-12.5711
▁clever	-12.5717
sive	-12.5719
▁orientation	-12.5719
▁Howard	-12.572
▁solely	-12.5721
▁attracted	-12.5724
▁ash	-12.5726
▁conditioners	-12.5726
ford	-12.5731
▁Residenza	-12.5731
▁alcove	-12.5732
▁Richard	-12.5732
▁Ad	-12.5736
▁attendees	-12.574
DO	-12.574
▁Sirkeci	-12.5743
▁WOULD	-12.5743
▁behaviour	-12.5743
▁Didnt	-12.5743
▁8)	-12.575
▁delux	-12.5751
▁horses	-12.5751
▁drinker	-12.5754
▁bicycle	-12.5754
▁Bit	-12.5757
▁waterbus	-12.5758
▁Rates	-12.5762
ered	-12.5763
▁lifeguard	-12.5767
▁Taj	-12.5767
cess	-12.5768
▁OUR	-12.5768
▁loading	-12.5769
▁reminder	-12.5769
▁Until	-12.5772
love	-12.5775
sha	-12.5776
▁reflects	-12.5777
▁allergy	-12.5778
▁capable	-12.578
▁associate	-12.5783
▁exceed	-12.5784
▁toddlers	-12.579
▁confidence	-12.579
▁rotten	-12.579
▁roses	-12.5791
▁360	-12.5792
▁performed	-12.5795
▁Bella	-12.5801
▁trapped	-12.5802
▁20'	-12.5803
ttle	-12.5803
▁Classic	-12.5806
normal	-12.5807
CO	-12.5808
Other	-12.5808
▁adapter	-12.5814
du	-12.5815
▁passable	-12.5815
typical	-12.5819
▁farthest	-12.5826
▁permitted	-12.5827
▁ch	-12.5829
▁Reach	-12.583
8)	-12.5833
anna	-12.5836
▁Sen	-12.5837
▁imaginable	-12.5838
uc	-12.5845
▁horrified	-12.585
▁investment	-12.5851
▁ba	-12.5851
▁spin	-12.5851
▁Run	-12.5852
▁Perfectly	-12.5852
ado	-12.5853
▁Pillows	-12.5854
▁handing	-12.5856
▁mango	-12.5861
▁chandelier	-12.5862
▁scratchy	-12.5864
▁hotdogs	-12.5865
▁Italians	-12.5866
▁Arno	-12.5867
▁Party	-12.5871
NY	-12.5878
cut	-12.5878
▁($3	-12.5879
▁nightcap	-12.5879
▁ultimate	-12.5884
▁(!)	-12.5884
▁Cypress	-12.5886
▁resting	-12.5887
▁lu	-12.589
▁bothers	-12.589
▁enquired	-12.589
/1	-12.589
▁49	-12.5895
▁Roger	-12.5895
lk	-12.5897
▁700	-12.5897
▁$9.95	-12.5898
▁chatted	-12.5899
95	-12.5903
▁Brand	-12.5905
▁Deal	-12.5906
▁claiming	-12.5906
▁beautifull	-12.5907
▁stark	-12.5909
▁Barberini	-12.591
▁Cambridge	-12.591
▁domestic	-12.591
▁buggy	-12.591
She	-12.5912
▁Manor	-12.5914
▁border	-12.5915
▁wheels	-12.5915
▁Mel	-12.5918
pper	-12.5921
▁Institute	-12.5922
▁cobblestone	-12.5922
▁unattended	-12.5922
▁Couple	-12.5923
▁Convento	-12.5925
▁Victorian	-12.5925
▁spreads	-12.5927
miss	-12.5928
▁Tuscan	-12.5932
▁cry	-12.5933
▁RIGHT	-12.5935
▁Fl	-12.5937
▁musical	-12.5939
lol	-12.594
▁Lisa	-12.5942
▁permanent	-12.5944
▁configuration	-12.5946
▁april	-12.5946
▁remarkably	-12.5946
▁drip	-12.5946
▁#4	-12.5952
between	-12.5956
touristy	-12.5957
▁Memphis	-12.5958
▁represents	-12.5961
▁brave	-12.5962
ata	-12.5968
keeping	-12.597
▁lugging	-12.5971
▁hula	-12.5971
▁latch	-12.5977
▁inc	-12.598
▁Traveling	-12.5981
rail	-12.5982
▁sydney	-12.5983
▁Sacre	-12.5983
▁Ottoman	-12.5983
▁slammed	-12.5983
cia	-12.5991
▁glitz	-12.5992
▁blender	-12.5993
/04	-12.5994
▁ashtray	-12.5996
ON	-12.5997
▁Early	-12.5998
▁wil	-12.5999
▁hourly	-12.5999
▁investigate	-12.6
hy	-12.6001
▁tremendously	-12.6001
▁briefly	-12.6005
▁accomadating	-12.6007
▁noisier	-12.6007
▁swept	-12.6007
▁interconnecting	-12.6007
▁Negative	-12.6009
▁$38	-12.6011
▁clearing	-12.6013
foot	-12.6015
▁unpacking	-12.6015
▁Pot	-12.6015
▁bliss	-12.6017
▁Kauai	-12.6019
▁Montmartre	-12.6019
▁housing	-12.6019
▁canapes	-12.6019
▁Cava	-12.602
▁accessories	-12.6021
▁z	-12.6022
Ba	-12.6022
strasse	-12.603
▁Alaska	-12.603
£	-12.603
▁Pulitzer	-12.6031
▁TERRIBLE	-12.6031
▁odour	-12.6031
▁automated	-12.6032
▁Money	-12.6032
▁Ladies	-12.6032
▁excuses	-12.6033
▁cou	-12.6036
▁Nine	-12.6038
▁crumbs	-12.6039
▁hats	-12.6039
local	-12.6041
▁varying	-12.6041
▁Passeig	-12.6043
▁dragged	-12.6044
▁Michelin	-12.6045
▁cupboards	-12.6046
▁requirement	-12.6046
▁container	-12.6046
▁rm	-12.6047
▁guessed	-12.6049
▁Pri	-12.605
▁Ven	-12.605
▁OH	-12.6051
▁UP	-12.6051
▁presumably	-12.6057
▁fixture	-12.6058
▁offensive	-12.6059
using	-12.6061
▁perform	-12.6061
Mi	-12.6062
▁stare	-12.6063
store	-12.6063
▁shortcomings	-12.607
▁Brian	-12.6074
▁PO	-12.6076
▁Shows	-12.6078
▁fancier	-12.608
▁PLUS	-12.608
ress	-12.608
▁folk	-12.6083
▁problematic	-12.6083
▁fridges	-12.6086
▁greets	-12.6089
▁pa	-12.6092
▁sympathetic	-12.6092
▁Cheesecake	-12.6092
kin	-12.6099
▁joints	-12.6102
▁haha	-12.6102
▁aloof	-12.6105
▁btw	-12.6107
▁partition	-12.6108
▁Bi	-12.6113
gym	-12.6115
▁comb	-12.6116
▁Yountville	-12.6117
▁commission	-12.6117
▁mice	-12.6118
▁Rail	-12.612
▁eatery	-12.6122
▁lagoons	-12.6125
mails	-12.6127
▁containers	-12.6129
▁AUD	-12.6133
▁Cra	-12.6134
▁lid	-12.6134
▁wider	-12.6134
boat	-12.6136
▁noice	-12.6136
▁Grille	-12.6136
▁diff	-12.6137
▁Av	-12.6138
ump	-12.614
▁grow	-12.614
▁AS	-12.614
▁concerts	-12.6141
▁extravagant	-12.6142
▁featuring	-12.6142
▁Camden	-12.6142
▁Russell	-12.6142
▁horn	-12.6144
lor	-12.6144
▁dispute	-12.6147
▁patch	-12.6152
▁Sox	-12.6153
▁grabbing	-12.6154
▁Rooftop	-12.6155
lier	-12.6156
▁Trade	-12.6156
▁ticked	-12.6157
Bo	-12.6159
▁30'	-12.616
▁Taco	-12.6163
▁condescending	-12.6166
▁Windsor	-12.6166
▁fa	-12.6167
▁glitches	-12.6168
▁Orient	-12.617
sen	-12.617
▁Ya	-12.6171
▁43	-12.6171
▁bc	-12.6172
▁soundproofed	-12.6174
▁Pioneer	-12.6179
▁OVERALL	-12.618
rr	-12.6183
▁specify	-12.6183
sit	-12.6184
ire	-12.6185
▁forgetting	-12.6185
▁130	-12.6185
▁20-	-12.6187
▁occassion	-12.619
▁graduation	-12.6191
▁removing	-12.6191
▁redecorated	-12.6192
rage	-12.6194
▁obliged	-12.6194
/6	-12.6195
nn	-12.6197
▁doubts	-12.6199
▁clouds	-12.62
▁agreement	-12.6203
▁Complete	-12.6204
▁communicating	-12.6204
▁venturing	-12.6204
▁noodles	-12.6205
▁$25.00	-12.6205
▁command	-12.6205
▁drained	-12.6206
▁fre	-12.6208
km	-12.6209
issue	-12.6212
▁sta	-12.6213
designed	-12.6214
▁bu	-12.6214
cat	-12.6215
▁hopped	-12.6217
ju	-12.6219
▁exhausting	-12.6222
▁escalators	-12.6223
▁serviceable	-12.6224
▁attack	-12.6225
nk	-12.6226
cent	-12.6226
▁Mansion	-12.6229
▁eats	-12.6231
▁brew	-12.6234
▁schedules	-12.6234
▁Gar	-12.6234
tired	-12.6235
cial	-12.6237
▁granddaughter	-12.6241
▁substandard	-12.6241
av	-12.6242
▁packaged	-12.6245
▁lockers	-12.6251
lovely	-12.6251
▁ke	-12.6253
▁foliage	-12.6253
▁unusable	-12.6253
▁programs	-12.6253
March	-12.6253
▁Grace	-12.6254
▁Johnson	-12.6256
▁pepper	-12.6256
▁Lei	-12.6258
speaking	-12.6261
mber	-12.6263
▁Drury	-12.6266
▁Construction	-12.6266
▁Sunscape	-12.6266
▁substance	-12.6266
▁sunglasses	-12.6266
olo	-12.6268
▁ordeal	-12.627
▁spoon	-12.627
▁140	-12.6271
▁keyboard	-12.6271
▁snap	-12.6271
▁drinkers	-12.6272
▁fame	-12.6274
▁kong	-12.6279
▁pi	-12.6279
▁Number	-12.6279
▁elliptical	-12.6281
▁bomb	-12.6284
▁relocated	-12.6284
1/2	-12.6286
▁Fin	-12.6286
▁dei	-12.6286
▁haggle	-12.6291
▁accom	-12.6292
▁panic	-12.6293
▁$50.00	-12.6294
▁har	-12.6296
▁boarded	-12.6299
ua	-12.63
▁darling	-12.6303
▁roulette	-12.6303
▁profit	-12.6304
▁technically	-12.6305
▁doorway	-12.6305
▁cana	-12.6306
▁locale	-12.6307
▁stairway	-12.6307
tech	-12.6307
die	-12.6309
▁THANK	-12.6316
▁Halloween	-12.6316
▁unaware	-12.6316
▁gray	-12.6316
----	-12.6317
mes	-12.6318
▁compares	-12.6319
cab	-12.6322
▁aroma	-12.6323
▁gazebo	-12.6329
▁pr	-12.6329
month	-12.633
▁Macys	-12.6333
▁76	-12.6341
▁RUDE	-12.6341
watch	-12.6343
▁Lamp	-12.6346
▁pinch	-12.6348
▁gin	-12.6349
▁comedy	-12.635
▁Earl	-12.6351
-17	-12.6353
▁MORE	-12.6354
flat	-12.6356
apparently	-12.6362
maker	-12.6363
▁splurged	-12.6364
nor	-12.6365
▁remedied	-12.6366
▁Jorge	-12.6366
▁Toiletries	-12.6366
▁june	-12.6367
▁element	-12.637
▁itchy	-12.6378
▁omlettes	-12.6379
▁appalled	-12.6379
▁forewarned	-12.6379
▁Kissimmee	-12.6379
▁olds	-12.6383
sal	-12.6383
elle	-12.6386
▁je	-12.6386
▁str	-12.6396
▁Bat	-12.6397
▁cl	-12.6397
▁tu	-12.6398
▁consierge	-12.6404
▁Rude	-12.6405
▁Wind	-12.6405
lined	-12.6407
▁Downside	-12.6408
▁Dua	-12.6413
▁Ipod	-12.6414
ano	-12.6417
▁artists	-12.6417
▁Conclusion	-12.6417
▁frayed	-12.6417
▁techno	-12.6421
lock	-12.6422
?!?	-12.6426
▁$110	-12.6426
▁Holidays	-12.6427
▁processed	-12.6427
▁war	-12.6427
▁horrific	-12.643
▁Cabs	-12.643
▁monuments	-12.643
26	-12.643
▁instructed	-12.643
AND	-12.6431
▁extortionate	-12.6431
33	-12.6433
▁THEhotel	-12.6436
▁listing	-12.6436
▁Si	-12.6438
▁Rib	-12.6438
▁$160	-12.6439
road	-12.644
lt	-12.644
▁EVERYONE	-12.6442
▁Manuel	-12.6442
▁According	-12.6442
▁trend	-12.6443
▁fuzzy	-12.6443
ese	-12.6443
▁TOO	-12.6445
▁riu	-12.6446
▁priceless	-12.6446
tions	-12.6447
▁cava	-12.6447
▁airplanes	-12.6451
▁hardest	-12.6452
▁q	-12.6452
▁Argonaut	-12.6455
▁ceramic	-12.6455
▁Rouge	-12.6455
▁Diagonal	-12.6455
▁hadnt	-12.6455
99	-12.6457
▁Condo	-12.6458
▁NOTE	-12.6461
CE	-12.6463
▁cage	-12.6463
▁Ni	-12.6466
▁Greek	-12.6468
▁parlor	-12.6468
▁fr	-12.6468
▁ref	-12.6469
▁et	-12.6473
▁displays	-12.6474
▁Conveniently	-12.6476
▁lizards	-12.6477
▁soundly	-12.6477
▁10.00	-12.6478
bread	-12.6481
▁Iron	-12.6481
▁stinks	-12.6483
ering	-12.6483
▁litter	-12.6484
▁behaved	-12.6484
▁bedded	-12.6485
hu	-12.6486
▁disappear	-12.6486
ku	-12.6488
short	-12.649
▁directing	-12.6492
▁personel	-12.6493
檙	-12.6493
▁detector	-12.6494
▁Checkpoint	-12.6496
lon	-12.6496
▁strangely	-12.6498
▁clam	-12.65
eh	-12.6502
▁recomended	-12.6504
▁Domingo	-12.6506
▁veiw	-12.6506
▁packs	-12.6508
▁Sheets	-12.6508
▁Ju	-12.6511
▁string	-12.6511
body	-12.6512
▁tidied	-12.6519
▁fry	-12.6519
▁BACK	-12.6519
▁shark	-12.6523
.75	-12.6525
▁singer	-12.6526
▁bedsheets	-12.6526
!!!!!!!!	-12.6527
ces	-12.6528
inc	-12.6529
▁snorkle	-12.653
▁ASAP	-12.6532
▁unreliable	-12.6532
▁temple	-12.6534
▁medication	-12.6536
▁laundromat	-12.6545
▁necessity	-12.6545
▁humour	-12.6545
▁hops	-12.6548
▁$100/	-12.6548
pick	-12.6549
frills	-12.6553
From	-12.6553
tch	-12.6554
▁Swim	-12.6557
}	-12.6557
▁whistles	-12.6558
▁neon	-12.6563
rea	-12.6563
cca	-12.6564
▁expert	-12.6568
▁celebrity	-12.657
ane	-12.6571
▁interrupted	-12.6572
▁sensational	-12.6572
▁gi	-12.6574
▁Nor	-12.6574
▁resemble	-12.6576
▁yum	-12.6578
▁gl	-12.658
▁Pick	-12.6582
▁Decided	-12.6583
▁karaoke	-12.6583
cco	-12.6586
▁DONT	-12.6587
▁Positive	-12.6589
▁Receptionist	-12.659
compared	-12.6592
...(	-12.6594
▁Beautifully	-12.6595
▁Presidente	-12.6595
▁AKL	-12.6596
▁contest	-12.6601
▁layed	-12.6602
-19	-12.6603
▁Brits	-12.6605
▁wo	-12.6608
▁Catamaran	-12.6609
▁counts	-12.661
inch	-12.6611
▁downer	-12.6613
▁disturbance	-12.6615
▁blamed	-12.6617
▁airconditioner	-12.662
▁snorkeled	-12.6621
▁Chocolate	-12.6622
▁Sahara	-12.6622
▁grandeur	-12.6622
bing	-12.6623
▁Opus	-12.6635
rating	-12.6643
▁ob	-12.6645
▁prints	-12.6648
▁Conti	-12.6648
ition	-12.6648
▁Sant	-12.6649
▁Ham	-12.665
▁enabled	-12.6654
▁Trop	-12.6657
▁bellboys	-12.6661
▁Cistern	-12.6661
▁attic	-12.6662
AR	-12.6664
▁roped	-12.6667
2.	-12.6668
▁splashing	-12.6668
▁hu	-12.667
▁afield	-12.6671
▁$36	-12.6671
▁battle	-12.6674
cap	-12.6674
▁calming	-12.6681
▁spice	-12.6682
▁oz	-12.6683
course	-12.669
aking	-12.6691
sea	-12.6694
ound	-12.6697
▁ashamed	-12.67
▁Bal	-12.6702
▁woods	-12.6703
▁lean	-12.6705
▁Rate	-12.6708
list	-12.6708
▁Heaven	-12.6711
▁audible	-12.6713
▁murky	-12.6713
▁forecast	-12.6713
▁knife	-12.6713
▁coolest	-12.6713
LI	-12.6713
▁Warning	-12.6714
▁remotely	-12.6715
▁op	-12.6721
mine	-12.6722
▁crafts	-12.6724
▁Penthouse	-12.6726
▁realistic	-12.6728
▁sufficiently	-12.6731
KE	-12.6733
▁doughnuts	-12.6734
▁Dad	-12.6738
▁Loads	-12.6739
visit	-12.6741
▁Lombard	-12.6743
▁roam	-12.6748
▁Thirty	-12.6752
▁orchard	-12.6752
▁Nordstrom	-12.6752
▁Westfield	-12.6753
LO	-12.6755
▁unlikely	-12.6756
nda	-12.6757
▁Pitt	-12.6758
▁recieve	-12.6758
▁30%	-12.6759
▁engineering	-12.6761
▁whim	-12.6762
everyone	-12.6762
▁Disappointed	-12.6766
▁Might	-12.6766
five	-12.6766
▁oranges	-12.6767
maid	-12.6768
▁cliff	-12.6772
▁gar	-12.6775
▁53	-12.6775
▁Mine	-12.6775
Al	-12.6777
▁bistros	-12.6777
▁Stamford	-12.6778
▁Twice	-12.6778
▁Euston	-12.6778
etto	-12.6779
▁Supermarket	-12.6779
▁Freedom	-12.6781
▁Knowing	-12.6781
▁examples	-12.6782
▁nerve	-12.6785
▁fantastically	-12.6785
cher	-12.6786
▁SW	-12.6786
Resort	-12.6787
▁lanes	-12.6788
▁pickpockets	-12.6788
▁mos	-12.6789
remember	-12.6789
▁positively	-12.679
▁Atocha	-12.6792
▁belief	-12.6792
▁VIM	-12.6792
ito	-12.6793
▁Rex	-12.6795
▁fears	-12.6795
▁=)	-12.6797
▁polish	-12.6798
cious	-12.6798
▁buns	-12.6799
▁CON	-12.6803
▁german	-12.6804
▁AN	-12.6805
▁qualities	-12.6805
▁Juice	-12.6805
▁minds	-12.6806
▁RH	-12.6806
charge	-12.6807
sel	-12.6811
▁dusk	-12.6812
vation	-12.6814
yrs	-12.6814
▁overbooking	-12.6814
▁subsequent	-12.6816
▁BLT	-12.6818
▁Disappointing	-12.6818
▁graffiti	-12.6818
▁Nusa	-12.6818
▁Tri	-12.6819
TO	-12.6821
▁$25/	-12.6823
Ca	-12.6824
▁Find	-12.6827
▁hugely	-12.6829
▁rap	-12.683
▁choc	-12.683
▁Napoleon	-12.6831
▁NEW	-12.6831
▁worldwide	-12.6832
until	-12.6833
▁Taking	-12.6833
▁Museums	-12.6836
▁NYE	-12.6836
▁monkey	-12.6838
▁Plate	-12.684
▁Fruit	-12.6844
▁shadow	-12.6844
▁Leonardo	-12.6845
▁Lucia	-12.6846
▁hottest	-12.6847
▁11.30	-12.6847
ght	-12.6854
▁shelter	-12.6855
▁begging	-12.6856
▁HVAC	-12.6858
▁comprehensive	-12.6858
▁carriage	-12.6858
▁7-10	-12.6865
▁Dream	-12.6865
ood	-12.6866
renovated	-12.6866
▁Fullerton	-12.6871
▁Gem	-12.6872
▁canyon	-12.6872
Note	-12.6875
ker	-12.6879
▁september	-12.6884
▁Angelo	-12.6884
▁2010,	-12.6885
eur	-12.6885
▁quietest	-12.6889
▁Sch	-12.6889
▁Gal	-12.6889
▁tariff	-12.6898
▁reduction	-12.6898
oc	-12.6898
▁vacationed	-12.6899
▁Tipping	-12.6899
▁invite	-12.6904
booking	-12.6904
▁disliked	-12.6908
9)	-12.6908
▁supplement	-12.6911
▁eleven	-12.6913
▁sting	-12.6914
▁soiled	-12.6916
▁Rain	-12.692
NOT	-12.6921
▁Thorough	-12.6921
fine	-12.6923
▁docks	-12.6924
/8	-12.6924
▁tooth	-12.6924
▁freedom	-12.6924
▁Edward	-12.6925
▁#5	-12.6928
nts	-12.6931
▁operates	-12.6933
Entertainment	-12.6933
▁chicago	-12.6937
▁Police	-12.6938
▁punta	-12.6938
▁treating	-12.6943
▁Start	-12.6943
▁bracelets	-12.6943
▁REAL	-12.6948
▁readers	-12.6948
▁sudden	-12.6949
▁disappointments	-12.6949
▁Hiltons	-12.6952
▁Wa	-12.6956
▁arena	-12.6957
▁Cu	-12.6963
▁$1000	-12.6963
▁Mayakoba	-12.6964
▁convinient	-12.6964
▁infact	-12.6967
▁ja	-12.6973
▁backside	-12.6975
▁stunned	-12.6978
▁settling	-12.6978
▁$2.50	-12.6979
▁ci	-12.698
▁retired	-12.6983
outside	-12.6984
/30	-12.6985
▁shave	-12.6988
▁tr	-12.6989
▁pri	-12.6993
▁belt	-12.6993
▁<	-12.6994
rick	-12.6996
▁razor	-12.6999
ene	-12.6999
▁tier	-12.6999
▁Glass	-12.7001
▁Does	-12.7004
▁Admittedly	-12.7005
▁Holland	-12.7005
▁subtle	-12.7005
▁breakfest	-12.7005
loud	-12.7005
▁dismal	-12.7008
AS	-12.7011
▁faucets	-12.7011
sun	-12.7012
▁MC	-12.7013
▁Miss	-12.7016
▁glamour	-12.7017
▁Contrary	-12.7018
▁Statue	-12.7018
▁servicing	-12.7018
▁cd	-12.7019
▁neatly	-12.702
▁inspired	-12.7021
▁Cuban	-12.7023
36	-12.7024
▁Eating	-12.7025
decorated	-12.7026
▁starwood	-12.7027
▁yearly	-12.703
▁recommand	-12.7032
▁kiosks	-12.7034
▁masses	-12.7034
adult	-12.7035
▁2/3	-12.7036
▁suffering	-12.704
▁gambled	-12.7042
▁RECOMMEND	-12.7045
▁Sutton	-12.7045
▁HDTV	-12.7045
▁appetite	-12.7045
▁Logan	-12.7045
▁gathered	-12.7051
▁operators	-12.7055
ison	-12.7058
▁identify	-12.7058
toast	-12.7061
▁teeny	-12.7062
▁warmed	-12.7063
▁66	-12.7063
▁discovering	-12.7064
▁Oceana	-12.7064
ics	-12.7066
▁attracts	-12.7069
▁BB	-12.7069
los	-12.7071
▁Colloseum	-12.7072
▁queuing	-12.7072
Me	-12.7074
bri	-12.7077
▁din	-12.7077
esp	-12.7078
▁$42	-12.7079
▁RC	-12.7082
$2	-12.7084
▁absolutley	-12.7086
▁cornflakes	-12.7086
▁scruffy	-12.7086
▁Limited	-12.7086
▁Potsdamer	-12.7086
An	-12.7088
▁Pop	-12.7088
▁Par	-12.7089
ately	-12.709
Spa	-12.7093
ust	-12.7093
▁Outlet	-12.7094
▁Coral	-12.7095
▁heaps	-12.7095
▁jelly	-12.7099
▁Ponce	-12.71
▁Westgate	-12.71
minded	-12.7101
▁Steves	-12.7101
deli	-12.7102
form	-12.7105
chair	-12.7107
▁dispensers	-12.7107
▁mop	-12.7108
▁Laura	-12.7108
▁Africa	-12.7111
▁embarrassing	-12.7113
▁cancun	-12.7113
▁unfailingly	-12.7113
▁jogging	-12.7113
▁Hula	-12.7114
▁Gabi	-12.7115
▁Team	-12.7117
▁exited	-12.7117
scape	-12.7118
▁sneak	-12.7119
▁chapel	-12.7119
glass	-12.7121
afternoon	-12.7122
▁Natural	-12.7122
snacks	-12.7123
▁hygiene	-12.7126
▁Donuts	-12.7127
▁dept	-12.7128
▁chore	-12.7129
▁upcoming	-12.7129
▁severely	-12.713
pu	-12.7131
▁fork	-12.7135
April	-12.7135
refundable	-12.7135
▁bubbly	-12.714
▁Yonge	-12.714
▁Originally	-12.7141
▁whiske	-12.7141
IL	-12.7143
▁petite	-12.7143
▁meantime	-12.7145
▁recover	-12.7145
▁Director	-12.7148
ox	-12.7151
ws	-12.7153
▁coco	-12.7153
▁absurd	-12.7154
▁pc	-12.7157
lift	-12.7158
▁takeaway	-12.7158
▁counting	-12.716
▁arrivals	-12.716
▁Away	-12.7162
▁mistaken	-12.7162
▁statue	-12.7162
fantastic	-12.7163
mat	-12.7163
▁appropriately	-12.7163
▁aid	-12.7164
▁JUST	-12.7167
ddle	-12.717
▁darkness	-12.7171
▁teach	-12.7172
▁renovate	-12.7174
lot	-12.7175
▁stray	-12.7177
▁04	-12.718
▁KBH	-12.7181
▁jog	-12.7185
-13	-12.7186
▁Hubby	-12.7195
▁Mad	-12.7195
▁cheesecake	-12.7198
▁Keys	-12.7198
▁Sweet	-12.7204
▁Lets	-12.7205
▁hyatt	-12.7208
▁striking	-12.7208
▁specified	-12.7208
sink	-12.721
AT	-12.721
▁melted	-12.7212
▁partners	-12.7214
▁anticipate	-12.7218
▁acting	-12.7222
suites	-12.7223
eria	-12.7223
▁reporting	-12.7226
▁entertainers	-12.7226
▁tent	-12.7236
▁Amalfi	-12.7236
▁Lupita	-12.7236
▁purple	-12.7236
▁vanilla	-12.7236
▁Historic	-12.7239
Best	-12.7239
▁conf	-12.724
▁coins	-12.7241
▁indulge	-12.7243
▁boom	-12.7245
▁Thats	-12.7249
▁hiring	-12.725
ric	-12.7256
complete	-12.7257
▁Inter	-12.7259
dirty	-12.726
▁ser	-12.726
▁Pie	-12.726
▁Ki	-12.7262
▁Smith	-12.7263
▁puddle	-12.7263
▁remembering	-12.7264
/20	-12.7267
▁Tres	-12.727
▁Dog	-12.7272
iff	-12.7273
▁Matt	-12.7273
▁prevented	-12.7276
▁Je	-12.7277
▁Zealand	-12.7277
▁Azul	-12.7279
▁elevated	-12.7279
gie	-12.7279
▁Oceanfront	-12.728
zy	-12.728
▁Sears	-12.728
▁percent	-12.728
ev	-12.7281
▁Bike	-12.7282
bur	-12.7284
▁Muse	-12.7285
▁blasting	-12.7285
▁armchair	-12.7287
bay	-12.7288
▁Lighting	-12.729
▁Pedro	-12.7291
▁Sitting	-12.7291
live	-12.7292
▁Private	-12.7292
▁chatty	-12.7292
▁Paia	-12.7293
▁accessing	-12.7304
▁flexibility	-12.7305
▁experiance	-12.7305
▁grain	-12.7305
▁adaptor	-12.7305
▁text	-12.7306
▁highways	-12.7308
▁painfully	-12.7309
stone	-12.7309
▁rinse	-12.7312
keep	-12.7315
▁Tahiti	-12.7319
▁inferior	-12.7319
▁multitude	-12.7319
uck	-12.7321
▁regretted	-12.7321
ele	-12.7331
▁disposal	-12.7333
▁judging	-12.7333
▁audio	-12.7333
▁FUN	-12.7333
▁chan	-12.7335
▁sweating	-12.7342
▁$39	-12.7345
▁overpowering	-12.7347
▁aging	-12.7347
▁waist	-12.7347
▁pissed	-12.7347
bble	-12.7348
▁Inclusive	-12.7349
▁mojitos	-12.735
▁Sants	-12.735
lli	-12.7352
DE	-12.7356
▁loving	-12.7359
▁Hair	-12.736
▁born	-12.736
▁Bamboo	-12.736
▁Ralph	-12.736
▁remedy	-12.736
▁figuring	-12.736
▁Discovery	-12.7362
▁constructed	-12.7362
▁scream	-12.7363
chairs	-12.7368
▁taco	-12.7371
▁continuous	-12.7372
▁marginal	-12.7372
Its	-12.7373
damm	-12.7374
▁bri	-12.7374
▁Akumal	-12.7374
▁sandbags	-12.7375
say	-12.7378
▁bones	-12.7379
RA	-12.7379
▁formed	-12.7385
sie	-12.7386
▁Blues	-12.7387
term	-12.7388
▁whistle	-12.7388
▁dubious	-12.7388
▁Kevin	-12.7388
▁Jerry	-12.7389
Euros	-12.7389
ras	-12.739
oeuvres	-12.7392
▁doll	-12.7393
found	-12.7395
▁carpeted	-12.7396
▁factors	-12.7398
▁Fee	-12.7399
log	-12.7399
▁Bahama	-12.7399
▁peanut	-12.7399
comp	-12.7401
▁frontdesk	-12.7402
▁uncommon	-12.7403
ec	-12.7403
▁dealer	-12.7404
▁stainless	-12.7404
▁breezes	-12.7405
▁Mitte	-12.7405
▁Clark	-12.7409
▁sculptures	-12.7413
▁beige	-12.7415
▁barking	-12.7416
▁junction	-12.7416
▁Pablo	-12.7416
▁squeaky	-12.7417
San	-12.7417
ori	-12.7417
▁Bond	-12.7421
▁matches	-12.7422
▁provider	-12.7424
Blue	-12.7426
▁Falls	-12.7428
▁Mia	-12.743
▁Oyster	-12.743
▁broad	-12.7431
▁Wendy	-12.7431
action	-12.7432
budget	-12.744
Orsay	-12.744
stic	-12.7442
▁joking	-12.7442
▁hol	-12.7442
▁swap	-12.7444
▁misfortune	-12.7444
▁reminiscent	-12.7444
▁Transport	-12.7445
▁topper	-12.7448
urant	-12.7451
▁swamp	-12.7456
his	-12.7456
檝	-12.7459
nne	-12.7459
▁Bongo	-12.7459
▁$180	-12.7459
▁deeper	-12.7462
▁surfers	-12.7462
different	-12.7464
▁stacked	-12.7464
wait	-12.7466
▁spell	-12.7468
these	-12.7469
▁Interesting	-12.7471
▁Santo	-12.7472
▁enclosure	-12.7473
▁presentations	-12.7474
ato	-12.7475
▁Julio	-12.7475
▁Lady	-12.7476
▁expresso	-12.7476
▁Yorker	-12.7476
sion	-12.748
▁$49	-12.748
cer	-12.7482
▁tie	-12.7485
▁yell	-12.7487
▁Halekulani	-12.7487
▁uncomfortably	-12.7487
▁HO	-12.7487
▁$2.00	-12.7488
gio	-12.7494
Had	-12.7495
balcony	-12.7496
▁racket	-12.7497
▁pale	-12.7497
▁nestle	-12.7499
▁DE	-12.7502
▁Atrium	-12.7502
▁manger	-12.7503
▁vice	-12.7504
tax	-12.7505
▁Versailles	-12.7506
▁Blu	-12.7511
▁tenders	-12.7512
sign	-12.7513
▁distances	-12.7514
▁atrocious	-12.7515
▁eiffel	-12.7515
▁miniscule	-12.7515
▁nutshell	-12.7515
▁Saona	-12.7515
▁countryside	-12.7519
▁42"	-12.7522
tram	-12.7525
▁melt	-12.7526
▁Starbuck	-12.7526
▁gondolas	-12.7527
▁($15	-12.7527
▁overbearing	-12.7529
▁Channel	-12.7529
▁Luquillo	-12.7529
▁Gateway	-12.753
▁represent	-12.7532
▁liquors	-12.7533
jet	-12.7533
▁sole	-12.7535
▁Dunkin	-12.7536
▁luxe	-12.7537
▁runners	-12.7539
nic	-12.754
▁ambulance	-12.7541
▁cinnamon	-12.7543
▁navigating	-12.7543
▁unwelcoming	-12.7543
▁Andrew	-12.7545
▁banged	-12.7547
GO	-12.7551
▁unlock	-12.7555
▁garages	-12.7556
▁Muni	-12.7557
▁method	-12.7558
▁Katrina	-12.7558
▁spraying	-12.7562
▁watersports	-12.7562
boo	-12.7567
downtown	-12.7568
-24	-12.7569
▁Biggest	-12.7572
▁invoice	-12.7572
▁Crescent	-12.7572
based	-12.7573
▁miniature	-12.7573
▁uniformly	-12.7573
▁benches	-12.7574
▁notify	-12.7577
▁overflow	-12.7578
▁invaluable	-12.7581
▁bur	-12.7581
▁dumb	-12.7586
▁Manhatten	-12.7586
▁Monteleone	-12.7586
▁generator	-12.7586
▁furious	-12.7588
known	-12.7588
▁Phone	-12.7592
▁mansion	-12.7593
▁tolerate	-12.7593
-18	-12.7599
▁Awful	-12.76
▁cried	-12.7603
▁bumping	-12.7605
rge	-12.7607
▁bla	-12.761
▁witness	-12.7611
▁pays	-12.7612
evening	-12.7613
▁Mercedes	-12.7615
Hare	-12.7615
▁annoy	-12.7622
noise	-12.7624
▁companions	-12.7624
▁STAR	-12.7624
Disney	-12.7624
▁brothers	-12.7625
▁Pet	-12.7625
▁privately	-12.7628
▁aim	-12.7629
▁recomment	-12.7629
▁rope	-12.7629
dic	-12.7629
▁Block	-12.763
▁doubled	-12.7636
▁racks	-12.7637
▁pose	-12.7637
lio	-12.7638
Ho	-12.7638
▁cu	-12.764
igh	-12.7643
▁Buckingham	-12.7643
▁Carnegie	-12.7643
▁memorial	-12.7643
▁Swiss	-12.7643
▁FULL	-12.7643
▁Jimmy	-12.7644
▁favourites	-12.7644
▁roman	-12.7646
▁approaching	-12.7647
$1	-12.7647
▁manicure	-12.7651
▁sir	-12.7652
▁Leave	-12.7655
▁adjustment	-12.7656
▁Trader	-12.7656
▁disposable	-12.7658
▁SE	-12.7658
cus	-12.7658
zu	-12.7662
burg	-12.7667
▁warrant	-12.7668
39	-12.7669
▁patiently	-12.767
▁Savoy	-12.7672
▁Dom	-12.7674
▁Bahn	-12.7674
▁Er	-12.7677
▁Bryant	-12.7678
▁6-8	-12.7681
▁pressured	-12.7684
▁Concorde	-12.7686
▁EVERYWHERE	-12.7686
▁Paramount	-12.7686
▁relied	-12.7686
▁alas	-12.7687
cl	-12.7697
tv	-12.7697
▁fav	-12.7697
▁resonable	-12.7701
▁WERE	-12.7701
▁anyhow	-12.7701
▁Bellman	-12.7702
▁inappropriate	-12.7702
▁Bedding	-12.7703
EUR	-12.7704
▁$200/	-12.7707
▁(25	-12.7707
▁trusted	-12.7707
▁starter	-12.7709
▁jo	-12.7713
▁AFTER	-12.7715
▁definition	-12.7716
▁download	-12.7716
▁delights	-12.7717
▁illness	-12.7718
▁Mixed	-12.7718
▁DVDs	-12.772
▁kinks	-12.7725
▁booklet	-12.7726
▁underwater	-12.7726
▁dramatic	-12.7729
▁league	-12.773
▁instructor	-12.773
▁inflated	-12.773
▁Cap	-12.7731
▁Returned	-12.7731
tine	-12.774
▁bearing	-12.7741
ille	-12.7741
▁visa	-12.7742
▁BEFORE	-12.7744
▁applies	-12.7744
▁slap	-12.7745
▁Ceasars	-12.7746
ization	-12.7748
▁bon	-12.7749
rather	-12.775
▁clocks	-12.7751
▁hosting	-12.7752
pack	-12.7753
▁snag	-12.7754
▁willingness	-12.7754
▁Horn	-12.7758
▁Banana	-12.7759
▁berlin	-12.7759
▁scarce	-12.7759
▁shuts	-12.776
▁Pack	-12.776
▁storey	-12.7764
ME	-12.7765
▁noone	-12.7766
▁Thurs	-12.7767
▁reno	-12.7768
▁mirrored	-12.7768
▁ding	-12.7768
▁Gave	-12.777
▁walker	-12.7771
til	-12.7772
▁mission	-12.7773
▁AWFUL	-12.7773
▁Bristol	-12.7773
▁spiral	-12.7773
af	-12.7773
▁gang	-12.7773
▁padded	-12.7773
▁Puck	-12.7775
▁Ram	-12.7775
▁Ambar	-12.7775
ior	-12.7776
▁officer	-12.7778
▁shooting	-12.7779
▁Tub	-12.7781
Please	-12.7783
▁idiot	-12.7787
▁feb	-12.7787
▁Saratoga	-12.7788
▁dubai	-12.7788
▁Albergo	-12.7788
plan	-12.7791
49	-12.7793
fu	-12.7794
tur	-12.7794
▁Sc	-12.7795
▁1970	-12.7797
▁slim	-12.7798
▁Benjamin	-12.7802
▁Spagna	-12.7803
▁endure	-12.7804
▁beams	-12.7804
▁danger	-12.7805
▁Piazzale	-12.7807
▁Augustus	-12.7807
ock	-12.781
▁decline	-12.781
▁Mongkok	-12.7817
▁december	-12.7817
▁curteous	-12.7817
▁Rodeo	-12.7817
▁STILL	-12.7817
▁CC	-12.7817
▁organize	-12.7818
looked	-12.7826
ef	-12.7827
▁Magical	-12.7829
▁$30/	-12.783
▁duct	-12.7831
▁guidance	-12.7831
▁Hopkins	-12.7831
▁Reasonably	-12.7831
▁Hwy	-12.7831
▁Travelled	-12.7832
▁Snorkeling	-12.7833
▁Wanted	-12.7836
tar	-12.7839
▁wardrobes	-12.7841
▁styled	-12.7842
▁brushed	-12.7842
▁resist	-12.7846
▁styling	-12.7846
▁Figure	-12.7847
tiny	-12.7847
▁suffice	-12.7848
▁groomed	-12.7849
▁colourful	-12.785
yet	-12.7852
▁potentially	-12.7858
▁coladas	-12.786
▁Cesar	-12.7861
▁cancelling	-12.7862
soft	-12.7862
▁midweek	-12.7863
▁fu	-12.7866
bor	-12.7873
▁(~	-12.7874
▁Immediately	-12.7875
▁napkins	-12.7877
▁branded	-12.7878
▁Peak	-12.7878
▁$79	-12.7878
▁pane	-12.7884
▁outlook	-12.7885
ius	-12.789
▁Traffic	-12.789
▁rarity	-12.789
▁Manchester	-12.789
▁fumes	-12.789
feel	-12.7893
▁brass	-12.7893
▁Requested	-12.7896
▁pee	-12.7897
▁odds	-12.7898
▁pl	-12.7899
▁bal	-12.79
▁quietness	-12.79
awesome	-12.79
▁overrun	-12.79
gon	-12.7901
▁Est	-12.7904
▁musicians	-12.7905
▁Galata	-12.7905
▁responses	-12.7906
▁dÃ	-12.7906
▁professionals	-12.7907
▁rows	-12.7907
▁transported	-12.7909
▁Radio	-12.7914
▁bf	-12.7914
vers	-12.7916
▁resteraunt	-12.7919
▁thirsty	-12.792
ental	-12.7921
cooked	-12.7924
▁centres	-12.7924
▁latin	-12.7926
▁irons	-12.7928
▁MB	-12.7928
▁stool	-12.7934
▁associates	-12.7934
▁6-	-12.7934
▁decades	-12.7936
sia	-12.7937
area	-12.7939
▁starving	-12.7939
▁passage	-12.7941
mba	-12.7944
▁Traveled	-12.7946
▁refined	-12.7949
▁bodies	-12.7949
▁(4)	-12.795
▁seventh	-12.7954
either	-12.7954
▁damper	-12.7954
▁recharge	-12.7956
ured	-12.7958
lights	-12.7959
▁sim	-12.7961
tie	-12.7961
bal	-12.7961
▁bitter	-12.7963
▁crockery	-12.7964
▁extraordinarily	-12.7964
▁realizing	-12.7967
itive	-12.7968
▁littered	-12.7968
▁flown	-12.7968
har	-12.7969
▁creamer	-12.7973
▁Flight	-12.7973
qua	-12.7973
sses	-12.7974
▁pun	-12.7975
▁launch	-12.7975
▁study	-12.7975
▁Deco	-12.7976
▁secrets	-12.7976
▁suburbs	-12.7977
▁washrooms	-12.7978
▁printers	-12.7978
▁erosion	-12.7978
▁hong	-12.7979
▁countertop	-12.7983
▁filtered	-12.7984
▁patios	-12.7986
▁Hola	-12.7987
ues	-12.7989
**	-12.7989
▁insulting	-12.799
▁10/10	-12.7991
▁interfere	-12.7993
▁Thompson	-12.7993
▁categories	-12.7993
▁Winter	-12.7994
▁crowed	-12.7995
▁Ami	-12.7998
building	-12.8003
lum	-12.8004
fire	-12.8008
▁Anthony	-12.8008
▁importance	-12.8008
▁circuit	-12.8009
34	-12.8009
31	-12.8009
▁Newark	-12.8009
▁unreal	-12.801
workers	-12.8011
pin	-12.8013
▁scuff	-12.8014
▁juan	-12.8015
regular	-12.8019
▁flavour	-12.8019
▁accounts	-12.8023
▁pancake	-12.8023
▁Gaylord	-12.8023
▁jerk	-12.8023
▁Wolfgang	-12.8023
▁Visa	-12.8024
▁Lazy	-12.8024
▁2003.	-12.8026
▁remarks	-12.8028
personal	-12.8029
▁blows	-12.803
▁Mill	-12.803
boiled	-12.8031
▁artist	-12.8033
▁unexpectedly	-12.8035
▁exp	-12.8037
▁informal	-12.8038
▁Aulani	-12.8038
▁MOST	-12.8038
▁grandchildren	-12.8038
▁Korean	-12.8039
▁OLD	-12.804
▁trans	-12.8041
▁rested	-12.8045
].	-12.8047
alcoholic	-12.8049
▁overview	-12.8049
yard	-12.8051
Armes	-12.8052
▁caps	-12.8052
▁Bastille	-12.8053
▁Pennsylvania	-12.8053
▁Company	-12.8053
▁Sirenis	-12.8053
▁grandmother	-12.8053
▁uncrowded	-12.8053
▁Hoover	-12.8053
▁omlette	-12.8055
▁($20	-12.8057
▁aimed	-12.8057
▁pads	-12.8061
▁Patio	-12.8065
grand	-12.8066
▁promote	-12.8067
▁spider	-12.8068
▁unused	-12.8069
super	-12.8071
...........	-12.8073
▁statues	-12.8073
should	-12.8078
85	-12.8079
Tip	-12.8082
▁DLR	-12.8083
yed	-12.8091
coming	-12.8093
.20	-12.8094
golf	-12.8094
▁Christian	-12.8098
▁BREAKFAST	-12.8098
▁confronted	-12.8099
Out	-12.81
▁brag	-12.8101
guests	-12.8105
Di	-12.8105
▁hints	-12.8105
▁Pl	-12.8108
▁mor	-12.8111
▁2007,	-12.8112
esque	-12.8112
▁engine	-12.8113
▁necklace	-12.8113
▁shook	-12.8114
CA	-12.8115
▁terraces	-12.812
▁Pink	-12.812
▁apologise	-12.8121
▁females	-12.8121
▁stir	-12.8122
▁criticisms	-12.8126
▁uninterested	-12.8128
▁Rosewood	-12.8128
▁spicy	-12.8129
▁creates	-12.8129
▁Cream	-12.8129
▁sprawling	-12.8129
▁subsequently	-12.8131
▁dia	-12.8131
▁observations	-12.8137
sight	-12.8138
▁freeways	-12.8138
▁carries	-12.8139
care	-12.8139
pad	-12.8142
▁undoubtedly	-12.8143
▁policies	-12.8143
▁raving	-12.8143
▁Word	-12.8144
spect	-12.8145
▁Oz	-12.8145
▁cardboard	-12.8149
▁Bondi	-12.8155
▁Invalides	-12.8158
▁marriage	-12.8158
▁sponge	-12.8158
second	-12.8159
▁affiliated	-12.8159
▁fashionable	-12.8161
▁object	-12.8171
▁Serrano	-12.8173
▁flimsy	-12.8173
▁colada	-12.8174
▁tick	-12.8175
wing	-12.8175
▁bro	-12.8179
Will	-12.8179
▁105	-12.8185
▁seniors	-12.8185
▁annoyances	-12.8186
aff	-12.8188
▁gluten	-12.8188
▁backpack	-12.8199
▁hostal	-12.82
▁convient	-12.8201
call	-12.8203
▁Philadelphia	-12.8203
▁Brunch	-12.8203
▁Dave	-12.8204
Old	-12.8206
▁Haven	-12.8207
▁exits	-12.8207
By	-12.8209
▁Set	-12.821
▁survive	-12.8212
▁span	-12.8213
▁Scott	-12.8213
▁toiletry	-12.8216
▁Previous	-12.8217
ular	-12.8218
▁Palomino	-12.8219
▁nowadays	-12.8219
▁grotty	-12.8219
▁rats	-12.8219
▁drier	-12.8219
▁shipped	-12.8219
▁pur	-12.8221
▁jug	-12.8222
6)	-12.8227
▁CAD	-12.8228
dont	-12.823
▁upwards	-12.8233
▁Culebra	-12.8234
▁unimpressed	-12.8234
▁madrid	-12.8234
▁TST	-12.8235
▁doable	-12.8238
▁dreams	-12.8238
▁Duck	-12.824
▁risers	-12.824
▁stretching	-12.8241
▁arch	-12.8246
▁mayan	-12.8248
▁Health	-12.8249
▁Popolo	-12.8249
▁Epic	-12.8249
▁suburb	-12.825
▁HHV	-12.8251
▁Through	-12.8251
poor	-12.8259
airport	-12.8262
-21	-12.8263
°	-12.8264
▁curry	-12.8264
▁Travelling	-12.8266
▁martinis	-12.827
▁li	-12.8272
▁Told	-12.8272
▁nickle	-12.8272
-22	-12.8277
▁tones	-12.8278
lty	-12.8279
▁Ugly	-12.8279
▁manhattan	-12.8279
▁Tegel	-12.828
▁Shelter	-12.828
▁Fridays	-12.828
▁LI	-12.8281
▁Moulin	-12.8283
went	-12.8284
----------------	-12.8285
ora	-12.8292
▁Auberge	-12.8295
▁beleive	-12.8295
▁operations	-12.8295
▁foremost	-12.8295
▁cranky	-12.8296
ati	-12.8298
bon	-12.83
▁mate	-12.83
east	-12.8304
als	-12.8305
ATION	-12.8308
▁heartily	-12.8313
▁stingy	-12.8313
▁Relaxing	-12.8313
▁shoppers	-12.8314
-14	-12.8318
ome	-12.8318
ash	-12.8321
▁protest	-12.8322
IS	-12.8323
▁Moscone	-12.8325
▁Peabody	-12.8325
fr	-12.8326
▁westin	-12.8326
▁locking	-12.8333
▁rusted	-12.8334
dent	-12.8335
tered	-12.8337
▁Barri	-12.834
▁Ce	-12.8341
▁Sergio	-12.8341
▁relationship	-12.8341
▁Botanical	-12.8341
▁accents	-12.8341
▁parallel	-12.8341
▁Gre	-12.8344
len	-12.8345
▁jacuzzis	-12.8345
post	-12.8348
▁districts	-12.8349
▁advanced	-12.835
▁fajitas	-12.835
▁chilling	-12.8351
iti	-12.8354
GA	-12.8354
▁Char	-12.8355
▁freebies	-12.8356
▁congestion	-12.8356
▁grime	-12.8357
▁Walgreen	-12.8358
ros	-12.8363
/9	-12.8365
tent	-12.8366
aring	-12.8367
▁coloured	-12.8367
pic	-12.8368
▁unimpressive	-12.8372
▁qualify	-12.8372
▁$199	-12.8373
▁Strange	-12.8373
lets	-12.8374
▁gum	-12.8375
▁Twin	-12.8377
illy	-12.838
trained	-12.8381
\	-12.8382
▁Julie	-12.8384
▁brushing	-12.8384
▁swimmers	-12.8384
ili	-12.8387
▁Tribeca	-12.8387
▁immigration	-12.8387
▁taught	-12.8387
▁uber	-12.8391
▁eventhough	-12.8391
▁HA	-12.8393
▁whisk	-12.8396
tti	-12.8397
▁stag	-12.8398
▁decaf	-12.8399
▁Trying	-12.8402
Occitane	-12.8402
▁sheraton	-12.8402
▁creek	-12.8403
▁PAY	-12.8403
▁uneasy	-12.8404
▁threatening	-12.8404
▁occupant	-12.8405
▁swiftly	-12.8407
▁craft	-12.8409
rah	-12.8413
ually	-12.8414
ished	-12.8414
cle	-12.8415
tri	-12.8417
▁hideous	-12.8418
▁mezzanine	-12.8418
▁Unit	-12.8419
▁MBS	-12.8419
▁cuz	-12.842
▁tune	-12.842
▁overflowing	-12.8422
▁cal	-12.8422
▁churches	-12.8423
▁Ray	-12.8423
tely	-12.8425
▁6-7	-12.8432
▁fragrance	-12.8433
▁Fusion	-12.8433
▁hor	-12.8434
▁utter	-12.8434
sk	-12.8435
▁kings	-12.8439
▁surrounds	-12.8439
▁War	-12.8447
▁technical	-12.8447
▁munchies	-12.8449
▁cooperative	-12.8449
▁Urban	-12.8449
▁italy	-12.845
▁danishes	-12.845
MO	-12.8451
▁Bull	-12.8452
▁MD	-12.8454
deal	-12.8455
Mon	-12.8455
▁soups	-12.8455
▁onion	-12.8455
▁employ	-12.8455
▁Season	-12.8458
nu	-12.8458
▁dimed	-12.8462
▁wealth	-12.8463
END	-12.8464
▁majestic	-12.8465
▁College	-12.8465
▁Funny	-12.8465
▁suprisingly	-12.8465
▁Boma	-12.8466
▁moves	-12.8467
▁descriptions	-12.847
Un	-12.8472
▁PER	-12.8474
▁ga	-12.8475
▁insight	-12.8477
▁heaters	-12.8477
▁tart	-12.8478
▁inexperienced	-12.848
▁uneventful	-12.848
▁resteraunts	-12.8481
▁restrictions	-12.8482
▁drainage	-12.8482
motel	-12.8484
gre	-12.8485
cio	-12.8486
▁Needed	-12.8487
shaped	-12.8493
▁(50	-12.8494
▁fails	-12.8494
▁orlando	-12.8496
▁exellent	-12.8496
▁Airways	-12.8496
straat	-12.8497
▁Min	-12.8498
war	-12.8502
▁2008,	-12.8505
▁peso	-12.8506
tube	-12.8507
chain	-12.8508
▁noodle	-12.8511
▁enable	-12.8511
▁promising	-12.8511
▁Greenwich	-12.8511
▁Cheese	-12.8512
▁koi	-12.8513
▁proposed	-12.8515
ffe	-12.8515
▁americans	-12.8515
▁scuffed	-12.8515
pl	-12.8519
▁Share	-12.852
ended	-12.8524
-26	-12.8524
▁Exceptional	-12.8525
▁ban	-12.8526
▁fisherman	-12.8527
▁TGI	-12.8529
bag	-12.8529
▁spe	-12.8538
▁goers	-12.854
cereal	-12.8542
▁width	-12.8543
▁Pu	-12.8544
▁therapist	-12.8546
▁Corso	-12.8546
▁CRT	-12.8546
▁temper	-12.8548
▁mechanical	-12.8553
microwave	-12.8554
▁pattern	-12.8558
▁Mum	-12.856
▁$30.00	-12.856
▁funicular	-12.856
ingly	-12.8561
▁minuses	-12.8562
▁sweaty	-12.8564
▁Chili	-12.8568
▁rounds	-12.8569
▁Gri	-12.8569
snack	-12.8573
UN	-12.8573
▁BOOK	-12.8574
▁heritage	-12.8574
▁snotty	-12.8574
▁Ama	-12.8575
▁upto	-12.8577
kers	-12.8578
gers	-12.858
/26	-12.8581
▁gained	-12.8582
▁Needs	-12.8584
ERS	-12.8585
unfortunately	-12.8585
ern	-12.8587
▁overcome	-12.8589
▁hob	-12.859
▁boo	-12.859
▁Artemide	-12.859
▁Travelzoo	-12.859
▁managing	-12.8591
▁attentiveness	-12.8591
▁toothbrushes	-12.8592
▁cashier	-12.8594
38	-12.8594
▁$100.00	-12.8594
ei	-12.8595
▁situations	-12.8597
▁boiler	-12.8597
▁cro	-12.8603
▁Loud	-12.8604
▁atmospheric	-12.8606
▁asthma	-12.8606
▁($4	-12.8606
▁nu	-12.8607
▁Following	-12.8608
▁consumed	-12.8611
▁crews	-12.8611
▁hassled	-12.8613
▁$69	-12.8615
▁Motor	-12.8622
▁Johnny	-12.8622
▁Anyhow	-12.8622
▁Single	-12.8623
▁towns	-12.8623
▁accessibility	-12.8624
▁Romance	-12.8624
▁sm	-12.8625
▁randomly	-12.8629
▁64	-12.8633
cker	-12.8637
▁emphasis	-12.8637
▁scalding	-12.8638
een	-12.8639
▁Rental	-12.8641
▁Agent	-12.8643
▁2*	-12.8643
bury	-12.8644
central	-12.8646
ALL	-12.8646
▁airconditioned	-12.8648
▁bathtubs	-12.8649
▁trim	-12.8651
▁panels	-12.8652
▁staircases	-12.8653
▁revolving	-12.8653
▁PRICE	-12.8653
▁Wicked	-12.8654
▁vegetarians	-12.8656
▁(14	-12.8658
▁upsetting	-12.866
▁booths	-12.866
..."	-12.866
▁breathing	-12.8661
▁vacuuming	-12.8662
▁Bosphorous	-12.8669
▁unfamiliar	-12.8669
▁production	-12.8673
▁Pierre	-12.8675
Hi	-12.8676
With	-12.8678
▁Employees	-12.868
▁SC	-12.8682
▁citizens	-12.8684
▁ethnic	-12.8685
▁colonial	-12.8685
▁paella	-12.8685
▁install	-12.8688
couldn	-12.8688
▁Ordered	-12.8688
▁walkers	-12.8689
▁celebrations	-12.8689
guest	-12.8691
▁avid	-12.8692
▁discourage	-12.8694
▁plague	-12.8694
▁leftover	-12.8695
▁drugs	-12.8698
center	-12.8699
▁faux	-12.8701
▁thumping	-12.8703
vie	-12.8703
PS	-12.8711
▁matching	-12.8712
▁vey	-12.8712
▁maneuver	-12.8713
▁Fernando	-12.8717
▁Fontana	-12.8717
bl	-12.8717
▁$12.95	-12.8717
▁$1.00	-12.8718
▁failure	-12.8718
▁matresses	-12.8719
▁cooks	-12.872
▁Land	-12.8722
▁bumps	-12.8722
firm	-12.8723
ister	-12.8727
Everything	-12.8728
▁odors	-12.8729
towel	-12.8729
▁becasue	-12.8733
▁Matteo	-12.8733
outs	-12.8733
RO	-12.8734
hill	-12.8734
wish	-12.8735
▁exists	-12.8736
gna	-12.8737
rus	-12.8739
▁midway	-12.8739
▁broom	-12.874
cks	-12.874
▁Hallways	-12.8741
▁Romantic	-12.8748
▁Tan	-12.8749
▁consecutive	-12.8749
▁thoroughfare	-12.8749
▁COLD	-12.8749
▁savannah	-12.8749
▁Driving	-12.8749
▁grandparents	-12.8749
oy	-12.8749
▁rumble	-12.875
▁pathways	-12.8751
▁Boys	-12.8753
2.00	-12.8753
▁objective	-12.8755
▁Girl	-12.8755
▁Lack	-12.8755
▁alleyway	-12.8755
▁birthdays	-12.8762
▁seldom	-12.8765
▁Westwood	-12.8767
▁numbered	-12.8768
▁Upgraded	-12.877
▁sampled	-12.8771
▁enforced	-12.8771
ars	-12.8772
▁postcards	-12.8775
Clean	-12.8777
▁2002	-12.8778
▁MK	-12.8778
▁WA	-12.8779
okay	-12.878
▁Retiro	-12.8781
▁illegal	-12.8781
▁velvet	-12.8781
▁charter	-12.8786
▁role	-12.8786
▁sang	-12.8788
-23	-12.879
▁cla	-12.8792
antly	-12.8794
▁ESPN	-12.8797
▁$3.50	-12.8798
▁coupled	-12.8801
▁cra	-12.8803
▁stretched	-12.8804
▁allot	-12.8804
▁Suntec	-12.8804
▁cond	-12.8805
▁passenger	-12.8808
:50	-12.881
bling	-12.8812
▁9)	-12.8812
▁brightly	-12.8813
▁cruising	-12.8813
▁Ginza	-12.8813
quest	-12.8814
▁crepe	-12.8814
▁determine	-12.8814
▁insufficient	-12.8816
▁legal	-12.8817
▁Agree	-12.8817
▁funds	-12.8818
▁warnings	-12.8818
cially	-12.8819
▁RI	-12.8819
zen	-12.8819
▁linger	-12.8822
ira	-12.8825
▁fog	-12.8826
▁justified	-12.8826
ously	-12.8826
▁browse	-12.8827
▁Beaches	-12.8828
▁footsteps	-12.8828
▁drama	-12.8829
/15	-12.8832
▁draining	-12.8834
ban	-12.8834
▁enjoys	-12.8835
▁flashy	-12.8836
300	-12.8836
▁brill	-12.8838
▁incidents	-12.8843
hang	-12.8843
▁va	-12.8845
▁cherry	-12.8845
▁disrepair	-12.8845
▁Dumont	-12.8845
▁stamp	-12.8847
▁Fan	-12.8847
▁labor	-12.8847
▁contents	-12.8848
▁Luxe	-12.8851
$10	-12.8853
▁Es	-12.886
▁15-	-12.8861
▁Bacardi	-12.8861
▁celebrities	-12.8861
▁colosseum	-12.8861
▁trevi	-12.8862
▁Timeshare	-12.8862
▁Cloud	-12.8862
▁10-12	-12.8864
roll	-12.8865
▁buckets	-12.8866
▁qui	-12.887
iable	-12.8871
▁suggests	-12.8873
▁balloons	-12.8875
ppy	-12.8875
▁ankle	-12.8876
wl	-12.8877
▁Pal	-12.8877
▁incentive	-12.8878
▁lowered	-12.888
▁Ohana	-12.8881
▁Alot	-12.8881
▁participated	-12.8886
▁cooker	-12.8887
▁Pelicanos	-12.8889
entertainment	-12.8889
▁cutter	-12.8891
▁lifted	-12.8891
▁Pasta	-12.8892
▁Scottsdale	-12.8894
▁festive	-12.8896
▁locating	-12.8896
▁Riveria	-12.8896
▁Route	-12.8896
▁cheeseburger	-12.8897
▁films	-12.8899
▁offended	-12.8903
▁buff	-12.8904
▁Fell	-12.8905
soap	-12.8908
▁ANYTHING	-12.891
▁artificial	-12.891
▁grumble	-12.8911
▁cheated	-12.8912
▁stake	-12.8912
▁grimy	-12.8913
▁overworked	-12.8913
▁manages	-12.8914
▁Sh	-12.8916
▁sorely	-12.8916
Sun	-12.892
dio	-12.892
buy	-12.892
▁drill	-12.8923
▁IMO	-12.8925
▁Excursions	-12.8925
▁Honua	-12.8926
▁drugstore	-12.8927
▁pokey	-12.8927
▁cheer	-12.8928
▁Mal	-12.8929
hol	-12.893
vel	-12.8934
▁grassy	-12.8935
gging	-12.8942
▁consistency	-12.8943
▁Minutes	-12.8943
▁$3.00	-12.8944
▁piled	-12.8944
▁hug	-12.8944
lled	-12.8946
▁Bud	-12.8946
Dec	-12.8946
wer	-12.8947
▁closeness	-12.895
dor	-12.8952
▁thereafter	-12.8958
▁stopper	-12.8958
▁skirt	-12.8958
▁asap	-12.8959
▁apologizing	-12.8959
▁improving	-12.8959
▁october	-12.8959
▁warehouse	-12.8959
▁Often	-12.8961
▁Fu	-12.8964
▁postcard	-12.8966
▁amused	-12.897
▁BAR	-12.8971
/25	-12.8971
UL	-12.8971
▁creatures	-12.8972
5%	-12.8973
ican	-12.8973
▁piped	-12.8974
▁Seeing	-12.8974
▁effortless	-12.8978
▁voicemail	-12.8978
▁bl	-12.8979
▁traded	-12.898
gr	-12.8987
obviously	-12.8987
▁sunbed	-12.899
▁pressing	-12.8991
▁timers	-12.8991
▁guitar	-12.8991
▁Sorbonne	-12.8992
▁noting	-12.8992
▁Body	-12.8992
▁inspect	-12.8994
▁Massage	-12.8995
▁freaked	-12.9
weighed	-12.9002
jacuzzi	-12.9004
▁Crab	-12.9007
▁offset	-12.9007
▁Alexander	-12.9008
▁trunk	-12.9008
▁utmost	-12.9008
▁tro	-12.9009
▁sigh	-12.9011
▁washcloth	-12.9013
▁scooters	-12.9013
▁rudest	-12.9014
▁release	-12.9018
▁bedtime	-12.9019
▁dumped	-12.9021
worn	-12.9021
▁router	-12.9021
▁Comp	-12.9022
▁fired	-12.9022
▁thatched	-12.9025
▁miracle	-12.9025
▁ladder	-12.9025
sort	-12.9025
▁Northern	-12.9025
▁differences	-12.9026
▁mingle	-12.9027
▁SMB	-12.9027
▁notable	-12.9035
▁existed	-12.9036
August	-12.9037
▁HH	-12.9041
▁Rembrandt	-12.9041
▁Daughter	-12.9041
▁Keith	-12.9041
▁Ricardo	-12.9041
▁hibachi	-12.9041
▁Separate	-12.9041
▁WATER	-12.9041
berg	-12.9041
▁stat	-12.9043
tier	-12.9043
▁insert	-12.9044
▁shutting	-12.9046
lingual	-12.9047
▁breakers	-12.9048
▁transition	-12.905
▁regrets	-12.9053
▁GF	-12.9053
▁Ken	-12.9053
▁garlic	-12.9058
▁populated	-12.9058
grade	-12.9059
▁Waited	-12.9063
▁boil	-12.9065
▁Apartments	-12.9066
hello	-12.9068
ining	-12.9068
depending	-12.9072
▁Helmsley	-12.9074
▁managment	-12.9074
▁Transat	-12.9075
3.00	-12.9075
▁WELL	-12.9075
▁descent	-12.9075
▁versa	-12.9075
▁Corte	-12.9076
▁Taino	-12.9077
▁wading	-12.9077
ude	-12.9078
▁Rogers	-12.9078
▁altho	-12.9079
ich	-12.9079
pit	-12.908
▁greetings	-12.9082
▁novelty	-12.9091
▁gen	-12.9092
▁Yuck	-12.9092
▁$700	-12.9093
▁1980	-12.9096
▁mushrooms	-12.9099
hing	-12.91
▁fastest	-12.9103
▁Fourth	-12.9106
▁Ah	-12.9107
▁Chapel	-12.9107
▁impecable	-12.9108
▁Hospitality	-12.9108
▁Scuba	-12.9108
[...]
